{
  "version": "1.0",
  "truncation": null,
  "padding": null,
  "added_tokens": [
    {
      "id": 0,
      "content": "[BOS]",
      "single_word": false,
      "lstrip": false,
      "rstrip": false,
      "normalized": false,
      "special": true
    },
    {
      "id": 1,
      "content": "[EOS]",
      "single_word": false,
      "lstrip": false,
      "rstrip": false,
      "normalized": false,
      "special": true
    },
    {
      "id": 2,
      "content": "[PAD]",
      "single_word": false,
      "lstrip": false,
      "rstrip": false,
      "normalized": false,
      "special": true
    }
  ],
  "normalizer": null,
  "pre_tokenizer": {
    "type": "ByteLevel",
    "add_prefix_space": true,
    "trim_offsets": true,
    "use_regex": true
  },
  "post_processor": null,
  "decoder": {
    "type": "ByteLevel",
    "add_prefix_space": true,
    "trim_offsets": true,
    "use_regex": true
  },
  "model": {
    "type": "BPE",
    "dropout": null,
    "unk_token": null,
    "continuing_subword_prefix": null,
    "end_of_word_suffix": null,
    "fuse_unk": false,
    "byte_fallback": false,
    "ignore_merges": false,
    "vocab": {
      "[BOS]": 0,
      "[EOS]": 1,
      "[PAD]": 2,
      "!": 3,
      "\"": 4,
      "$": 5,
      "%": 6,
      "&": 7,
      "'": 8,
      "(": 9,
      ")": 10,
      "+": 11,
      ",": 12,
      "-": 13,
      ".": 14,
      "/": 15,
      "0": 16,
      "1": 17,
      "2": 18,
      "3": 19,
      "4": 20,
      "5": 21,
      "6": 22,
      "7": 23,
      "8": 24,
      "9": 25,
      ":": 26,
      ";": 27,
      "?": 28,
      "A": 29,
      "B": 30,
      "C": 31,
      "D": 32,
      "E": 33,
      "F": 34,
      "G": 35,
      "H": 36,
      "I": 37,
      "J": 38,
      "K": 39,
      "L": 40,
      "M": 41,
      "N": 42,
      "O": 43,
      "P": 44,
      "Q": 45,
      "R": 46,
      "S": 47,
      "T": 48,
      "U": 49,
      "V": 50,
      "W": 51,
      "X": 52,
      "Y": 53,
      "Z": 54,
      "a": 55,
      "b": 56,
      "c": 57,
      "d": 58,
      "e": 59,
      "f": 60,
      "g": 61,
      "h": 62,
      "i": 63,
      "j": 64,
      "k": 65,
      "l": 66,
      "m": 67,
      "n": 68,
      "o": 69,
      "p": 70,
      "q": 71,
      "r": 72,
      "s": 73,
      "t": 74,
      "u": 75,
      "v": 76,
      "w": 77,
      "x": 78,
      "y": 79,
      "z": 80,
      "¡": 81,
      "¢": 82,
      "¦": 83,
      "§": 84,
      "¨": 85,
      "©": 86,
      "ª": 87,
      "«": 88,
      "¬": 89,
      "®": 90,
      "¯": 91,
      "°": 92,
      "´": 93,
      "¶": 94,
      "¹": 95,
      "º": 96,
      "»": 97,
      "½": 98,
      "Â": 99,
      "Ã": 100,
      "Å": 101,
      "Ð": 102,
      "â": 103,
      "Ċ": 104,
      "Ġ": 105,
      "Ģ": 106,
      "Ĥ": 107,
      "ĩ": 108,
      "ī": 109,
      "Ĭ": 110,
      "ĭ": 111,
      "ĵ": 112,
      "Ķ": 113,
      "ĺ": 114,
      "Ļ": 115,
      "ł": 116,
      "Ń": 117,
      "ou": 118,
      "Ġt": 119,
      "re": 120,
      "Ġd": 121,
      "Ġa": 122,
      "Ġp": 123,
      "Ġs": 124,
      "on": 125,
      "es": 126,
      "ai": 127,
      "en": 128,
      "Ġl": 129,
      "er": 130,
      "Ġc": 131,
      "Ã©": 132,
      "Ġm": 133,
      "ĠI": 134,
      "in": 135,
      "is": 136,
      "he": 137,
      "Ġn": 138,
      "an": 139,
      "om": 140,
      "qu": 141,
      "Ġf": 142,
      "as": 143,
      "Ġw": 144,
      "ĠT": 145,
      "Ġv": 146,
      "Ġb": 147,
      "ll": 148,
      "ĠJ": 149,
      "Ġy": 150,
      "Ġde": 151,
      "at": 152,
      "ous": 153,
      "Ġqu": 154,
      "it": 155,
      "Ġyou": 156,
      "ar": 157,
      "Ġh": 158,
      "Ġto": 159,
      "ent": 160,
      "ve": 161,
      "or": 162,
      "ĠÃ": 163,
      "ĠJe": 164,
      "un": 165,
      "est": 166,
      "Ġpas": 167,
      "ais": 168,
      "Ġthe": 169,
      "Ġque": 170,
      "Ġth": 171,
      "le": 172,
      "ĠTom": 173,
      "Ġg": 174,
      "ing": 175,
      "te": 176,
      "Ġne": 177,
      "us": 178,
      "et": 179,
      "eu": 180,
      "Ġj": 181,
      "our": 182,
      "Ġun": 183,
      "ed": 184,
      "oi": 185,
      "ĠÃł": 186,
      "ot": 187,
      "'t": 188,
      "Ġle": 189,
      "Ġre": 190,
      "ri": 191,
      "Ġo": 192,
      "Ġme": 193,
      "Ġla": 194,
      "ait": 195,
      "Ġsu": 196,
      "Ġ?": 197,
      "ĠC": 198,
      "se": 199,
      "ant": 200,
      "ro": 201,
      "il": 202,
      "Ã¨": 203,
      "ĠW": 204,
      "ĠIl": 205,
      "ce": 206,
      "lle": 207,
      "Ġen": 208,
      "Ġin": 209,
      "im": 210,
      "id": 211,
      "Ġbe": 212,
      "Ġe": 213,
      "Ġdo": 214,
      "Ġha": 215,
      "Ġis": 216,
      "ay": 217,
      "Ġest": 218,
      "ow": 219,
      "ion": 220,
      "Ġvous": 221,
      "Ġtr": 222,
      "ĠH": 223,
      "au": 224,
      "Ã©t": 225,
      "Ġce": 226,
      "Ġch": 227,
      "ĠL": 228,
      "ch": 229,
      "out": 230,
      "ment": 231,
      "Ġhe": 232,
      "ĠN": 233,
      "Ġof": 234,
      "Ġr": 235,
      "ĠE": 236,
      "Ġan": 237,
      "me": 238,
      "ont": 239,
      "al": 240,
      "Ġte": 241,
      "ĠS": 242,
      "ain": 243,
      "ic": 244,
      "'s": 245,
      "ie": 246,
      "ĠM": 247,
      "Ġpl": 248,
      "Ġthat": 249,
      "Ġse": 250,
      "ĠY": 251,
      "tu": 252,
      "ld": 253,
      "ke": 254,
      "Ġpar": 255,
      "hat": 256,
      "Ġli": 257,
      "pp": 258,
      "ver": 259,
      "eux": 260,
      "ĠD": 261,
      "ir": 262,
      "ĠA": 263,
      "ĠThe": 264,
      "ons": 265,
      "Ġcom": 266,
      "ĠYou": 267,
      "os": 268,
      "ªt": 269,
      "ĠP": 270,
      "Ġfor": 271,
      "ren": 272,
      "Ġpour": 273,
      "Ġau": 274,
      "aire": 275,
      "Ġune": 276,
      "Ġon": 277,
      "av": 278,
      "oo": 279,
      "and": 280,
      "Ġwas": 281,
      "ĠHe": 282,
      "Ġdon": 283,
      "gh": 284,
      "end": 285,
      "ag": 286,
      "Ġit": 287,
      "ad": 288,
      "Ġje": 289,
      "ĠV": 290,
      "vous": 291,
      "res": 292,
      "Ġk": 293,
      "ĠÃ©t": 294,
      "Ġwe": 295,
      "ter": 296,
      "Ġas": 297,
      "Ġhave": 298,
      "am": 299,
      "Ġsuis": 300,
      "ill": 301,
      "ne": 302,
      "ac": 303,
      "ans": 304,
      "ur": 305,
      "ien": 306,
      "âĢ": 307,
      "Ã©e": 308,
      "ble": 309,
      "ould": 310,
      "Ġpr": 311,
      "oir": 312,
      "Ġnot": 313,
      "Ġles": 314,
      "Ġyour": 315,
      "que": 316,
      "Ġall": 317,
      "'m": 318,
      "ut": 319,
      "Ġthis": 320,
      "Ġtu": 321,
      "ĠdÃ©": 322,
      "ue": 323,
      "Ġfaire": 324,
      "Ġst": 325,
      "Ġgo": 326,
      "Ã¨re": 327,
      "Ġpro": 328,
      "ght": 329,
      "ĠNous": 330,
      "ĠWe": 331,
      "Ġcan": 332,
      "Ġso": 333,
      "Ġwant": 334,
      "âĢ¯": 335,
      "Ġav": 336,
      "all": 337,
      "ĠQ": 338,
      "ui": 339,
      "Ġat": 340,
      "'re": 341,
      "ers": 342,
      "Ġmy": 343,
      "ang": 344,
      "ore": 345,
      "ure": 346,
      "now": 347,
      "mp": 348,
      "Âł": 349,
      "Ġave": 350,
      "Ġmon": 351,
      "ĠTu": 352,
      "ĠVous": 353,
      "Ġknow": 354,
      "ard": 355,
      "Ġdi": 356,
      "Ġdes": 357,
      "Ġdid": 358,
      "ĠÃªt": 359,
      "ith": 360,
      "ĠElle": 361,
      "Ġsom": 362,
      "ens": 363,
      "Ġdans": 364,
      "Ġcon": 365,
      "ig": 366,
      "Ġplus": 367,
      "Ġnous": 368,
      "Ġwith": 369,
      "ol": 370,
      "ĠIt": 371,
      "Ġ!": 372,
      "Ġlike": 373,
      "ort": 374,
      "ly": 375,
      "ff": 376,
      "Ġare": 377,
      "ez": 378,
      "Ã¨s": 379,
      "ĠShe": 380,
      "ess": 381,
      "ink": 382,
      "§a": 383,
      "Ġfr": 384,
      "Ã©c": 385,
      "Ġfait": 386,
      "pe": 387,
      "Ġsh": 388,
      "st": 389,
      "ust": 390,
      "ĠÃ§a": 391,
      "Ãª": 392,
      "hing": 393,
      "ose": 394,
      "Ġex": 395,
      "oin": 396,
      "Ġri": 397,
      "ĠMar": 398,
      "rai": 399,
      "ave": 400,
      "Ġtout": 401,
      "Ġsur": 402,
      "Ġma": 403,
      "Ã©s": 404,
      "Ġveux": 405,
      "Ġar": 406,
      "Ġab": 407,
      "ier": 408,
      "Ġdu": 409,
      "up": 410,
      "ook": 411,
      "Ãªt": 412,
      "her": 413,
      "Ġdev": 414,
      "Ġwhat": 415,
      "eur": 416,
      "Ġta": 417,
      "Ġavec": 418,
      "Ġwh": 419,
      "de": 420,
      "Ġqui": 421,
      "one": 422,
      "ong": 423,
      "ouv": 424,
      "Ġthink": 425,
      "ct": 426,
      "la": 427,
      "ap": 428,
      "Ġam": 429,
      "ĠO": 430,
      "ĠWhat": 431,
      "ette": 432,
      "ĠWh": 433,
      "ici": 434,
      "Ġhis": 435,
      "ois": 436,
      "ation": 437,
      "Ġquel": 438,
      "ime": 439,
      "ul": 440,
      "ĠCe": 441,
      "dre": 442,
      "if": 443,
      "Ġal": 444,
      "Ġany": 445,
      "bl": 446,
      "ci": 447,
      "Ġsa": 448,
      "Ġhim": 449,
      "ense": 450,
      "ĠDo": 451,
      "ĠTh": 452,
      "Ġdis": 453,
      "Ġver": 454,
      "imp": 455,
      "ĠMary": 456,
      "Ãł": 457,
      "Ġsi": 458,
      "onne": 459,
      "mps": 460,
      "Ġcomp": 461,
      "Ġpart": 462,
      "'ll": 463,
      "ĠLe": 464,
      "che": 465,
      "age": 466,
      "Ġwor": 467,
      "tre": 468,
      "mes": 469,
      "Ġet": 470,
      "Ġsont": 471,
      "Ġpeu": 472,
      "Ġus": 473,
      "ĠrÃ©": 474,
      "ted": 475,
      "are": 476,
      "Ġfe": 477,
      "'ve": 478,
      "ite": 479,
      "ux": 480,
      "otre": 481,
      "ate": 482,
      "ĠThey": 483,
      "ĠCom": 484,
      "Ġson": 485,
      "Ġand": 486,
      "ouve": 487,
      "ood": 488,
      "Ġren": 489,
      "ours": 490,
      "ĠQue": 491,
      "oy": 492,
      "uis": 493,
      "Ġdit": 494,
      "op": 495,
      "oup": 496,
      "Ġabout": 497,
      "ĠtrÃ¨s": 498,
      "ille": 499,
      "Ġtime": 500,
      "Ġget": 501,
      "cc": 502,
      "Ġapp": 503,
      "rais": 504,
      "ĠNe": 505,
      "si": 506,
      "Ġmais": 507,
      "Ġpense": 508,
      "Ġvou": 509,
      "ost": 510,
      "Ġhere": 511,
      "ten": 512,
      "Ġvery": 513,
      "Ġman": 514,
      "ĠÃªtre": 515,
      "ide": 516,
      "ĠPour": 517,
      "Ġmoi": 518,
      "Ġtemps": 519,
      "quoi": 520,
      "Ġdem": 521,
      "Ġser": 522,
      "rent": 523,
      "ĠB": 524,
      "ind": 525,
      "ine": 526,
      "ive": 527,
      "Ġdidn": 528,
      "ĠLa": 529,
      "Ġtou": 530,
      "ally": 531,
      "Ġout": 532,
      "Ã»": 533,
      "Ġsee": 534,
      "Ġvrai": 535,
      "ĠThis": 536,
      "je": 537,
      "ĠF": 538,
      "lles": 539,
      "ĠThat": 540,
      "mer": 541,
      "ĠÃ©tÃ©": 542,
      "Ġlui": 543,
      "Ġvotre": 544,
      "Ã´": 545,
      "app": 546,
      "Ġup": 547,
      "Ġpeux": 548,
      "very": 549,
      "ĠÃ©tait": 550,
      "ĠÃªtes": 551,
      "ry": 552,
      "ĠHow": 553,
      "Ġhad": 554,
      "Ġsais": 555,
      "Ġgr": 556,
      "Ġneed": 557,
      "el": 558,
      "Ġwere": 559,
      "Ġbeau": 560,
      "Ġjam": 561,
      "Ġchose": 562,
      "Ġher": 563,
      "tÃ©": 564,
      "Ġcl": 565,
      "Ġhapp": 566,
      "ĠÃ©": 567,
      "ase": 568,
      "ĠLes": 569,
      "Ġhas": 570,
      "Ġche": 571,
      "use": 572,
      "Ġes": 573,
      "day": 574,
      "Ġcette": 575,
      "Ã§": 576,
      "Ġres": 577,
      "Ġone": 578,
      "Ġici": 579,
      "pr": 580,
      "ĠDon": 581,
      "Ġtro": 582,
      "ner": 583,
      "iez": 584,
      "avai": 585,
      "ions": 586,
      "alk": 587,
      "Ã¹": 588,
      "Ġwill": 589,
      "Ġjamais": 590,
      "Ġgoing": 591,
      "Ã®": 592,
      "ight": 593,
      "ance": 594,
      "Ġdire": 595,
      "Ġtravai": 596,
      "uit": 597,
      "Ġag": 598,
      "able": 599,
      "Ġno": 600,
      "ome": 601,
      "Ġparl": 602,
      "Ġshould": 603,
      "Ġent": 604,
      "Ġton": 605,
      "Ġjust": 606,
      "Ġmar": 607,
      "oun": 608,
      "ven": 609,
      "ĠIls": 610,
      "Ġcela": 611,
      "Ġbien": 612,
      "here": 613,
      "'d": 614,
      "Ġvraiment": 615,
      "Ġlong": 616,
      "Ġpens": 617,
      "iÃ¨re": 618,
      "ast": 619,
      "ĠAre": 620,
      "ass": 621,
      "ak": 622,
      "une": 623,
      "Ġil": 624,
      "lp": 625,
      "ire": 626,
      "ĠPourquoi": 627,
      "Ġlook": 628,
      "Ġgood": 629,
      "ice": 630,
      "Ġtoi": 631,
      "other": 632,
      "Ġcont": 633,
      "ress": 634,
      "air": 635,
      "ĠQu": 636,
      "Ġhelp": 637,
      "rit": 638,
      "Ġtrain": 639,
      "ays": 640,
      "Ġpers": 641,
      "orte": 642,
      "ors": 643,
      "Ġco": 644,
      "mb": 645,
      "Ġtoo": 646,
      "Ġwork": 647,
      "Ġimp": 648,
      "moi": 649,
      "Ġatt": 650,
      "thing": 651,
      "aid": 652,
      "Ġbes": 653,
      "Ãªte": 654,
      "ade": 655,
      "Ġquelque": 656,
      "Ġseu": 657,
      "ist": 658,
      "Ġca": 659,
      "Ġcar": 660,
      "Ġbesoin": 661,
      "coup": 662,
      "ign": 663,
      "Ġwould": 664,
      "Ġcr": 665,
      "Ġper": 666,
      "ought": 667,
      "Ġvi": 668,
      "anger": 669,
      "Ġsav": 670,
      "arg": 671,
      "Ġthere": 672,
      "Ġpass": 673,
      "cher": 674,
      "Ġcould": 675,
      "Ġdiff": 676,
      "ĠMy": 677,
      "Ġad": 678,
      "dy": 679,
      "Ġvoul": 680,
      "Ġreally": 681,
      "ck": 682,
      "Ġfrom": 683,
      "aut": 684,
      "ack": 685,
      "elle": 686,
      "ep": 687,
      "Ġtell": 688,
      "vre": 689,
      "ĠWhy": 690,
      "Ġdemand": 691,
      "ord": 692,
      "ĠR": 693,
      "lf": 694,
      "Ġmain": 695,
      "tes": 696,
      "Ã©es": 697,
      "Ġlo": 698,
      "Ġple": 699,
      "Ġevery": 700,
      "Ġbr": 701,
      "Ġbeaucoup": 702,
      "Ġby": 703,
      "Ġsome": 704,
      "Ã©l": 705,
      "bre": 706,
      "ĠEst": 707,
      "Ġro": 708,
      "Ġtalk": 709,
      "ise": 710,
      "Ġarri": 711,
      "Ġavons": 712,
      "Ġavez": 713,
      "sez": 714,
      "lement": 715,
      "Ġfin": 716,
      "Ġtous": 717,
      "Ġsommes": 718,
      "Ġpren": 719,
      "Ġdoes": 720,
      "onn": 721,
      "orm": 722,
      "Ãªtre": 723,
      "ud": 724,
      "Ġbeen": 725,
      "Ġaller": 726,
      "riend": 727,
      "Ġvo": 728,
      "Ġstu": 729,
      "Ġparler": 730,
      "Ġpe": 731,
      "Ġpre": 732,
      "Ġont": 733,
      "Ġsem": 734,
      "wn": 735,
      "ob": 736,
      "Ġfer": 737,
      "ĠComment": 738,
      "ra": 739,
      "ds": 740,
      "Ġgot": 741,
      "Ġoff": 742,
      "Ġjus": 743,
      "Ġcome": 744,
      "art": 745,
      "Ġmore": 746,
      "Ġnever": 747,
      "Ġbus": 748,
      "Ġmal": 749,
      "Ġbl": 750,
      "Ġnow": 751,
      "Ãªme": 752,
      "Ġpla": 753,
      "Ġthan": 754,
      "ĠÃĩ": 755,
      "ĠÃĩa": 756,
      "Ġpeut": 757,
      "ange": 758,
      "ĠlÃł": 759,
      "ĠThere": 760,
      "ĠCan": 761,
      "Ġsomet": 762,
      "Ġgrand": 763,
      "aiss": 764,
      "Ġbut": 765,
      "ree": 766,
      "Ġmaison": 767,
      "Ġlet": 768,
      "Ġheure": 769,
      "Ġenc": 770,
      "ond": 771,
      "aime": 772,
      "Ġcomm": 773,
      "Ã©tait": 774,
      "Ġquest": 775,
      "ĠOn": 776,
      "ĠIs": 777,
      "vez": 778,
      "ĠG": 779,
      "iss": 780,
      "Ġtrop": 781,
      "ish": 782,
      "jours": 783,
      "Ġtoujours": 784,
      "Ġpos": 785,
      "ient": 786,
      "ab": 787,
      "Ġrien": 788,
      "Ġmat": 789,
      "ique": 790,
      "itÃ©": 791,
      "ants": 792,
      "Ġif": 793,
      "um": 794,
      "Ġmu": 795,
      "Ġva": 796,
      "Ġven": 797,
      "Ġjour": 798,
      "ĠÃ©c": 799,
      "Ġdeux": 800,
      "Ġvoir": 801,
      "Ġhome": 802,
      "Ġou": 803,
      "ĠprÃ©": 804,
      "Ġnouve": 805,
      "Ġpouv": 806,
      "Ġfat": 807,
      "Ġask": 808,
      "oire": 809,
      "Ġmes": 810,
      "Ġsp": 811,
      "Ġai": 812,
      "rait": 813,
      "Ġsomething": 814,
      "Ġencore": 815,
      "ils": 816,
      "Ġexp": 817,
      "Ġmuch": 818,
      "Ġmonde": 819,
      "Ġvoit": 820,
      "Ġbon": 821,
      "ge": 822,
      "ole": 823,
      "Ġtom": 824,
      "Ġspe": 825,
      "Ġeat": 826,
      "rÃ©": 827,
      "ĠU": 828,
      "Ġquoi": 829,
      "Ã¢": 830,
      "row": 831,
      "Ġpri": 832,
      "ĠMon": 833,
      "Ġlit": 834,
      "Ġpi": 835,
      "Ã´t": 836,
      "Ġsay": 837,
      "Ġenf": 838,
      "Ġfriend": 839,
      "ĠLet": 840,
      "ĠTout": 841,
      "ert": 842,
      "iens": 843,
      "Ġbu": 844,
      "Ġret": 845,
      "Ġread": 846,
      "Ġtake": 847,
      "Ġvais": 848,
      "Ġhappen": 849,
      "ussi": 850,
      "Ġright": 851,
      "ound": 852,
      "Ġreg": 853,
      "Ġaf": 854,
      "Ġcomme": 855,
      "ey": 856,
      "jour": 857,
      "aine": 858,
      "Ġquelqu": 859,
      "nÃ©": 860,
      "ĠdÃ©c": 861,
      "Ġavoir": 862,
      "Ġhow": 863,
      "Ġfais": 864,
      "Ġmake": 865,
      "Ġacc": 866,
      "ĠQuel": 867,
      "Ġfaut": 868,
      "ile": 869,
      "ody": 870,
      "Ã©tais": 871,
      "ick": 872,
      "Ġder": 873,
      "Ġans": 874,
      "Ġsupp": 875,
      "Ġdois": 876,
      "Ġvoiture": 877,
      "Ġsoit": 878,
      "ĠAs": 879,
      "ence": 880,
      "ars": 881,
      "Ġfeel": 882,
      "ĠDid": 883,
      "ies": 884,
      "ĠElles": 885,
      "ting": 886,
      "Ġbook": 887,
      "ures": 888,
      "Ġmoney": 889,
      "aimer": 890,
      "self": 891,
      "Ġconn": 892,
      "Ġthought": 893,
      "Ġph": 894,
      "lez": 895,
      "Ġback": 896,
      "Ġdr": 897,
      "riez": 898,
      "Ġwhen": 899,
      "tenant": 900,
      "Ġvie": 901,
      "Ġthey": 902,
      "Ġmo": 903,
      "Ġfois": 904,
      "du": 905,
      "Ġbet": 906,
      "bien": 907,
      "argent": 908,
      "avez": 909,
      "Ġpa": 910,
      "hui": 911,
      "Ġshe": 912,
      "oston": 913,
      "ĠEn": 914,
      "ĠBoston": 915,
      "Ġtravail": 916,
      "fe": 917,
      "ĠrÃ©p": 918,
      "Ġmont": 919,
      "ool": 920,
      "Ġsure": 921,
      "Ġeu": 922,
      "aimerais": 923,
      "jourd": 924,
      "Ġlast": 925,
      "Ġvu": 926,
      "Ġwho": 927,
      "Ġcons": 928,
      "Ġlot": 929,
      "Ġbel": 930,
      "ves": 931,
      "Ã®t": 932,
      "gl": 933,
      "ante": 934,
      "ĠOÃ¹": 935,
      "Ġint": 936,
      "Ã©ri": 937,
      "Ġanything": 938,
      "Ġnew": 939,
      "Ġor": 940,
      "Ġpet": 941,
      "Ġavait": 942,
      "Ġtold": 943,
      "Ġsou": 944,
      "vÃ©": 945,
      "aient": 946,
      "Ġlove": 947,
      "Ġaussi": 948,
      "endre": 949,
      "ild": 950,
      "Ġday": 951,
      "Ã¨me": 952,
      "ident": 953,
      "ried": 954,
      "pt": 955,
      "ouvez": 956,
      "Ġthing": 957,
      "rer": 958,
      "Ġfran": 959,
      "Ġnom": 960,
      "ough": 961,
      "Ġgu": 962,
      "Ġmaintenant": 963,
      "ouse": 964,
      "pos": 965,
      "Ġprobl": 966,
      "Ġund": 967,
      "Ġjou": 968,
      "Ġses": 969,
      "Ġaut": 970,
      "Ġagain": 971,
      "ĠsÃ»": 972,
      "ople": 973,
      "ĠoÃ¹": 974,
      "oth": 975,
      "ĠSi": 976,
      "ach": 977,
      "Ġpris": 978,
      "Ġdoesn": 979,
      "ĠdÃ©s": 980,
      "Ã§ais": 981,
      "Ġpu": 982,
      "Ġvis": 983,
      "ĠPle": 984,
      "Åĵ": 985,
      "Ġmin": 986,
      "iÃ©": 987,
      "Ġmust": 988,
      "ning": 989,
      "Ġceci": 990,
      "Ġwat": 991,
      "Ġjuste": 992,
      "ĠWhere": 993,
      "Ġcour": 994,
      "Ġdern": 995,
      "rive": 996,
      "ĠPlease": 997,
      "ĠfranÃ§ais": 998,
      "ieux": 999,
      "Ġpersonne": 1000,
      "Ġmade": 1001,
      "vers": 1002,
      "Ġseul": 1003,
      "essay": 1004,
      "Ġaujourd": 1005,
      "Ġway": 1006,
      "Ġchez": 1007,
      "Ġsent": 1008,
      "ame": 1009,
      "Ġold": 1010,
      "Ġmom": 1011,
      "Ġpol": 1012,
      "Ġke": 1013,
      "âĢĻ": 1014,
      "Ġsaid": 1015,
      "Ġrec": 1016,
      "ese": 1017,
      "ieve": 1018,
      "ouver": 1019,
      "Ġspeak": 1020,
      "itu": 1021,
      "rents": 1022,
      "Ġfam": 1023,
      "ĠIf": 1024,
      "ĠmÃªme": 1025,
      "Ã©lÃ©": 1026,
      "Ġye": 1027,
      "Ġporte": 1028,
      "tle": 1029,
      "Ġveu": 1030,
      "Ġplan": 1031,
      "Ġrest": 1032,
      "Ġid": 1033,
      "Ġten": 1034,
      "Ġter": 1035,
      "iqu": 1036,
      "ĠWho": 1037,
      "Ġho": 1038,
      "Ġlivre": 1039,
      "Ġprom": 1040,
      "ph": 1041,
      "cre": 1042,
      "ĠQui": 1043,
      "Ġstill": 1044,
      "ake": 1045,
      "Ġpeople": 1046,
      "Ġac": 1047,
      "nÃ©e": 1048,
      "Ġcare": 1049,
      "Ġsimp": 1050,
      "Ġwon": 1051,
      "Ġtoday": 1052,
      "ĠdÃ©j": 1053,
      "Ġpensais": 1054,
      "ĠdÃ©jÃł": 1055,
      "Ġwr": 1056,
      "act": 1057,
      "Ġsort": 1058,
      "Ġocc": 1059,
      "prÃ¨s": 1060,
      "Ġregard": 1061,
      "Ġmoment": 1062,
      "Ġwent": 1063,
      "ĠtÃ©lÃ©": 1064,
      "ek": 1065,
      "Ġsouv": 1066,
      "Ġcall": 1067,
      "att": 1068,
      "ĠNo": 1069,
      "ways": 1070,
      "orrow": 1071,
      "Ġdoing": 1072,
      "Ġhappy": 1073,
      "Ġbetter": 1074,
      "asse": 1075,
      "Ġhouse": 1076,
      "Ġsm": 1077,
      "Ġparents": 1078,
      "Ġprendre": 1079,
      "Ġmet": 1080,
      "Ġpay": 1081,
      "avais": 1082,
      "endu": 1083,
      "rench": 1084,
      "Ġbelieve": 1085,
      "anc": 1086,
      "Ġcha": 1087,
      "Ġalways": 1088,
      "body": 1089,
      "Ġhier": 1090,
      "Ġfu": 1091,
      "ĠFrench": 1092,
      "Ġache": 1093,
      "Ġquestion": 1094,
      "Ġstay": 1095,
      "ĠAvez": 1096,
      "Ġweek": 1097,
      "ĠpÃ¨re": 1098,
      "Ġonly": 1099,
      "Ġmieux": 1100,
      "di": 1101,
      "min": 1102,
      "Ġtw": 1103,
      "ĠmÃ©": 1104,
      "ĠPers": 1105,
      "Ġassez": 1106,
      "Ġnight": 1107,
      "Ġbonne": 1108,
      "Ġcro": 1109,
      "Ġinv": 1110,
      "ĠdÃ©t": 1111,
      "nous": 1112,
      "Ġthem": 1113,
      "Ġroom": 1114,
      "Ġsoir": 1115,
      "ĠÃĢ": 1116,
      "Ġplay": 1117,
      "ĠPersonne": 1118,
      "Ġlaiss": 1119,
      "Ġcompren": 1120,
      "omme": 1121,
      "Ġtrois": 1122,
      "Ġjob": 1123,
      "aux": 1124,
      "fore": 1125,
      "Ġaw": 1126,
      "ention": 1127,
      "acc": 1128,
      "ĠÃĬ": 1129,
      "Ġfl": 1130,
      "ty": 1131,
      "ĠEs": 1132,
      "erst": 1133,
      "ction": 1134,
      "Ġemp": 1135,
      "rÃªt": 1136,
      "ex": 1137,
      "Ġbefore": 1138,
      "tement": 1139,
      "Ġop": 1140,
      "be": 1141,
      "ft": 1142,
      "Ġim": 1143,
      "ĠÃĬtes": 1144,
      "chool": 1145,
      "Ġhard": 1146,
      "ĠproblÃ¨me": 1147,
      "ĠHave": 1148,
      "Ġover": 1149,
      "red": 1150,
      "fÃ©": 1151,
      "mber": 1152,
      "iz": 1153,
      "Ġtry": 1154,
      "Ġdown": 1155,
      "ider": 1156,
      "Ġquand": 1157,
      "Ġdemain": 1158,
      "Ġmany": 1159,
      "Ġdevrais": 1160,
      "Ġmanger": 1161,
      "Ġtoutes": 1162,
      "Ġsans": 1163,
      "Ġlittle": 1164,
      "ĠdÃ»": 1165,
      "Ġschool": 1166,
      "Ġour": 1167,
      "Ġgive": 1168,
      "Ġchild": 1169,
      "Ġisn": 1170,
      "Ġdisc": 1171,
      "ester": 1172,
      "ĠCombien": 1173,
      "enc": 1174,
      "ĠÂ": 1175,
      "esp": 1176,
      "ents": 1177,
      "uss": 1178,
      "Ġavant": 1179,
      "anted": 1180,
      "blem": 1181,
      "ĠCette": 1182,
      "hed": 1183,
      "Ġproblem": 1184,
      "ĠUn": 1185,
      "ĠplaÃ®t": 1186,
      "Ġhand": 1187,
      "Ġsurpr": 1188,
      "Ġunderst": 1189,
      "Ġleave": 1190,
      "Ġconf": 1191,
      "cont": 1192,
      "Ġgens": 1193,
      "Ġgl": 1194,
      "Ġsavoir": 1195,
      "eurs": 1196,
      "get": 1197,
      "Ġrem": 1198,
      "ĠEvery": 1199,
      "Ġrencont": 1200,
      "Ġwanted": 1201,
      "Ġrep": 1202,
      "Ġoccup": 1203,
      "Ġenv": 1204,
      "Ġmus": 1205,
      "ros": 1206,
      "kes": 1207,
      "ture": 1208,
      "Ġtrouv": 1209,
      "oint": 1210,
      "ager": 1211,
      "ving": 1212,
      "Ġsens": 1213,
      "og": 1214,
      "urn": 1215,
      "Ġfut": 1216,
      "Ġdog": 1217,
      "ired": 1218,
      "Ġdep": 1219,
      "ful": 1220,
      "ved": 1221,
      "Ãªtes": 1222,
      "Ġwhere": 1223,
      "oute": 1224,
      "Ġaim": 1225,
      "ĠÃ©tud": 1226,
      "reat": 1227,
      "Ġwait": 1228,
      "Ġpartir": 1229,
      "Ġnuit": 1230,
      "Ġwell": 1231,
      "Ġenfants": 1232,
      "Ġafter": 1233,
      "ĠDe": 1234,
      "esterday": 1235,
      "ity": 1236,
      "Ġaux": 1237,
      "Ġleft": 1238,
      "leep": 1239,
      "Ġend": 1240,
      "Ġheures": 1241,
      "Ġrais": 1242,
      "Ġelle": 1243,
      "ĠMa": 1244,
      "erre": 1245,
      "ĠJap": 1246,
      "Ġalone": 1247,
      "Ġbec": 1248,
      "Ġces": 1249,
      "Ġunderstand": 1250,
      "Ġtoute": 1251,
      "ĠMarie": 1252,
      "Ġtomorrow": 1253,
      "ĠaprÃ¨s": 1254,
      "Ġtravaill": 1255,
      "Ġhappened": 1256,
      "Ġchien": 1257,
      "Ġfather": 1258,
      "Ġessay": 1259,
      "Ġfind": 1260,
      "Ġinte": 1261,
      "arrive": 1262,
      "Ġcoup": 1263,
      "autre": 1264,
      "ult": 1265,
      "Ġimport": 1266,
      "ition": 1267,
      "Ġpetit": 1268,
      "Ã©cole": 1269,
      "Ġcomment": 1270,
      "Ġbuy": 1271,
      "Ġchos": 1272,
      "xt": 1273,
      "Ġenough": 1274,
      "jet": 1275,
      "Ġseem": 1276,
      "Ġput": 1277,
      "ute": 1278,
      "Ġsw": 1279,
      "ĠCela": 1280,
      "Ġthree": 1281,
      "ĠCh": 1282,
      "Ġyesterday": 1283,
      "Ġsimplement": 1284,
      "Ġpres": 1285,
      "ente": 1286,
      "sible": 1287,
      "Ġass": 1288,
      "Ġhur": 1289,
      "Ġfo": 1290,
      "Ġauc": 1291,
      "avant": 1292,
      "Ġmeet": 1293,
      "Ġdone": 1294,
      "rez": 1295,
      "leur": 1296,
      "Ġasked": 1297,
      "Ġexpl": 1298,
      "king": 1299,
      "cle": 1300,
      "par": 1301,
      "Ġlis": 1302,
      "auv": 1303,
      "Ġvoulais": 1304,
      "Ġbo": 1305,
      "Ġdrink": 1306,
      "ĠsÃ»r": 1307,
      "ace": 1308,
      "Ġtes": 1309,
      "Ġnotre": 1310,
      "Ġmor": 1311,
      "int": 1312,
      "Ġplace": 1313,
      "Ġchoses": 1314,
      "vent": 1315,
      "Ġsaw": 1316,
      "vis": 1317,
      "ĠWhen": 1318,
      "Ġcond": 1319,
      "mÃ©": 1320,
      "Ġtwo": 1321,
      "Ġconc": 1322,
      "read": 1323,
      "rÃ©c": 1324,
      "Ġcher": 1325,
      "Ġfriends": 1326,
      "Ġtea": 1327,
      "Ġpouvez": 1328,
      "Åĵur": 1329,
      "th": 1330,
      "ĠmÃ¨re": 1331,
      "eau": 1332,
      "ĠderniÃ¨re": 1333,
      "Ġinto": 1334,
      "Ġrester": 1335,
      "Ġsc": 1336,
      "Ġplease": 1337,
      "Ġfem": 1338,
      "Ġquelques": 1339,
      "ĠdÃ©p": 1340,
      "ail": 1341,
      "aisse": 1342,
      "ĠpassÃ©": 1343,
      "Ġob": 1344,
      "Ġaff": 1345,
      "Ġpuis": 1346,
      "ĠPuis": 1347,
      "llement": 1348,
      "Ġide": 1349,
      "oc": 1350,
      "Ġpourquoi": 1351,
      "Ġref": 1352,
      "Ġever": 1353,
      "Ġ1": 1354,
      "Ġtable": 1355,
      "Ġcham": 1356,
      "Ġveut": 1357,
      "ats": 1358,
      "Ġprof": 1359,
      "temps": 1360,
      "Ġeverything": 1361,
      "ated": 1362,
      "illes": 1363,
      "Ġlun": 1364,
      "orry": 1365,
      "Ġvenir": 1366,
      "ary": 1367,
      "Ġvos": 1368,
      "Ġmatin": 1369,
      "Ġwhy": 1370,
      "uses": 1371,
      "ount": 1372,
      "Ġvol": 1373,
      "Ġhope": 1374,
      "Ġpoint": 1375,
      "Ġheureux": 1376,
      "Ġgar": 1377,
      "Ġjours": 1378,
      "Ġnouveau": 1379,
      "endant": 1380,
      "Ġrapp": 1381,
      "ends": 1382,
      "yez": 1383,
      "Ġnext": 1384,
      "irst": 1385,
      "Ġchance": 1386,
      "arn": 1387,
      "omp": 1388,
      "ĠAll": 1389,
      "Ġphot": 1390,
      "ĠidÃ©e": 1391,
      "Ġcert": 1392,
      "Ġlate": 1393,
      "aider": 1394,
      "Ġmoin": 1395,
      "Ġbou": 1396,
      "ank": 1397,
      "Ġhear": 1398,
      "chÃ©": 1399,
      "ets": 1400,
      "Ġdur": 1401,
      "Ġsait": 1402,
      "ĠRe": 1403,
      "Ġense": 1404,
      "Ġgir": 1405,
      "Ġbusy": 1406,
      "Ġcor": 1407,
      "Ġinc": 1408,
      "Ġhab": 1409,
      "Ġrend": 1410,
      "idÃ©": 1411,
      "Ã¨rent": 1412,
      "ĠdÃ©sol": 1413,
      "ĠprÃªt": 1414,
      "icile": 1415,
      "Ġdou": 1416,
      "Ġwrong": 1417,
      "Ġfac": 1418,
      "Ġpat": 1419,
      "Ġpeur": 1420,
      "Ġother": 1421,
      "ĠtÃ´t": 1422,
      "avoir": 1423,
      "Ġaway": 1424,
      "Ġwalk": 1425,
      "Ġfort": 1426,
      "vi": 1427,
      "ĠWould": 1428,
      "Ġpo": 1429,
      "ris": 1430,
      "Ġkind": 1431,
      "Ġmot": 1432,
      "Ġquestions": 1433,
      "aurais": 1434,
      "Ġcroire": 1435,
      "lÃ©": 1436,
      "espÃ¨re": 1437,
      "gg": 1438,
      "Ġmauv": 1439,
      "Ġfun": 1440,
      "Ġdec": 1441,
      "Ġmauvais": 1442,
      "Ġsemble": 1443,
      "Ġprob": 1444,
      "Ġdoor": 1445,
      "Ġtrouver": 1446,
      "igu": 1447,
      "Ġsleep": 1448,
      "Ġprem": 1449,
      "Ġlive": 1450,
      "qui": 1451,
      "ffe": 1452,
      "oud": 1453,
      "Ġexc": 1454,
      "Ġvoulez": 1455,
      "ĠSt": 1456,
      "Ġcompl": 1457,
      "Ġsemaine": 1458,
      "ĠQuand": 1459,
      "Ġdifficile": 1460,
      "Ġmeill": 1461,
      "Ġpolice": 1462,
      "Ġkne": 1463,
      "Ġrendre": 1464,
      "Ġidea": 1465,
      "Ġshow": 1466,
      "Ġnothing": 1467,
      "phone": 1468,
      "Ġreme": 1469,
      "ĠprÃ©s": 1470,
      "Ġseule": 1471,
      "Ġfirst": 1472,
      "ĠvÃ©": 1473,
      "Ġcat": 1474,
      "ĠQuelle": 1475,
      "ĠdemandÃ©": 1476,
      "ĠrÃ©s": 1477,
      "Ġconse": 1478,
      "Ġlors": 1479,
      "Ġcet": 1480,
      "Ġsurpris": 1481,
      "Ġwasn": 1482,
      "Ã§on": 1483,
      "Ġvoy": 1484,
      "utes": 1485,
      "Ġparle": 1486,
      "Ġcou": 1487,
      "ather": 1488,
      "Ġnon": 1489,
      "angÃ©": 1490,
      "Ġaider": 1491,
      "Ġansw": 1492,
      "igh": 1493,
      "este": 1494,
      "Ġraison": 1495,
      "Ġentendu": 1496,
      "uire": 1497,
      "bles": 1498,
      "ĠÃī": 1499,
      "roit": 1500,
      "Ġlu": 1501,
      "Ġfille": 1502,
      "pect": 1503,
      "jeun": 1504,
      "ger": 1505,
      "ches": 1506,
      "Ġsorry": 1507,
      "elles": 1508,
      "les": 1509,
      "ĠrÃ©pon": 1510,
      "Ġmay": 1511,
      "Ġautre": 1512,
      "Ġgard": 1513,
      "Ġimportant": 1514,
      "Ġtra": 1515,
      "Ġcame": 1516,
      "ict": 1517,
      "Ġfatigu": 1518,
      "Ġchambre": 1519,
      "Ġremember": 1520,
      "Ġsouvent": 1521,
      "Ġturn": 1522,
      "Ġdepuis": 1523,
      "Ġalread": 1524,
      "Ġalready": 1525,
      "Ġear": 1526,
      "ale": 1527,
      "Ġgave": 1528,
      "ache": 1529,
      "Ġsavais": 1530,
      "ĠpiÃ¨": 1531,
      "Ġyears": 1532,
      "ĠÂ«": 1533,
      "Ġbed": 1534,
      "Ġeven": 1535,
      "imes": 1536,
      "Ġbeing": 1537,
      "Ġmort": 1538,
      "Ġbad": 1539,
      "Ġtomb": 1540,
      "Ġthings": 1541,
      "Ġyet": 1542,
      "Ġlang": 1543,
      "Ġkeep": 1544,
      "Ġknew": 1545,
      "Ġfai": 1546,
      "Ġbig": 1547,
      "Ġminutes": 1548,
      "Ġtook": 1549,
      "Ġpain": 1550,
      "Ġanyone": 1551,
      "Ġcouldn": 1552,
      "ister": 1553,
      "mble": 1554,
      "Ġcap": 1555,
      "Ġmother": 1556,
      "Ġused": 1557,
      "Ġsoon": 1558,
      "Ġann": 1559,
      "Ġpropos": 1560,
      "Ġlife": 1561,
      "Ġlooking": 1562,
      "Ġmorning": 1563,
      "ĠintÃ©": 1564,
      "Ġpendant": 1565,
      "Ġquit": 1566,
      "Ġname": 1567,
      "Ġmind": 1568,
      "Ġamis": 1569,
      "ory": 1570,
      "Ġfemme": 1571,
      "Ġwithout": 1572,
      "ins": 1573,
      "Ġtired": 1574,
      "Ġrain": 1575,
      "rions": 1576,
      "Ġhomme": 1577,
      "uter": 1578,
      "Ġcle": 1579,
      "erai": 1580,
      "ĠYour": 1581,
      "Ġprie": 1582,
      "Ġtard": 1583,
      "Ġlongtemps": 1584,
      "Ġaccident": 1585,
      "Ġami": 1586,
      "Ġopen": 1587,
      "orter": 1588,
      "Ġquelle": 1589,
      "Ġbest": 1590,
      "Ġinteres": 1591,
      "Ġproch": 1592,
      "Ġins": 1593,
      "aissez": 1594,
      "per": 1595,
      "Ġwatch": 1596,
      "Ġjusqu": 1597,
      "Ġfound": 1598,
      "Ġfi": 1599,
      "ĠarrÃªt": 1600,
      "Ġcol": 1601,
      "Ġretard": 1602,
      "Ġlost": 1603,
      "Ġstr": 1604,
      "Ġdorm": 1605,
      "Ġheard": 1606,
      "ĠvÃ©rit": 1607,
      "ĠHis": 1608,
      "Ġseen": 1609,
      "Ġgros": 1610,
      "Ġsho": 1611,
      "Ġmist": 1612,
      "Ġteacher": 1613,
      "Ġsat": 1614,
      "nis": 1615,
      "ts": 1616,
      "heure": 1617,
      "Ġord": 1618,
      "ĠarrivÃ©": 1619,
      "Ġsec": 1620,
      "Ġcommenc": 1621,
      "Ġfil": 1622,
      "ily": 1623,
      "Ġchange": 1624,
      "aller": 1625,
      "teur": 1626,
      "Ġsol": 1627,
      "Ġoften": 1628,
      "Ġchildren": 1629,
      "Ġtheir": 1630,
      "Ġuse": 1631,
      "Ġboy": 1632,
      "Ġstup": 1633,
      "Ġsame": 1634,
      "az": 1635,
      "ignore": 1636,
      "Ġready": 1637,
      "Ġpossible": 1638,
      "Ġmis": 1639,
      "Ġsera": 1640,
      "ĠachetÃ©": 1641,
      "iste": 1642,
      "Ġpasse": 1643,
      "rap": 1644,
      "Ġhaven": 1645,
      "Ġmiss": 1646,
      "Ġnombre": 1647,
      "erreur": 1648,
      "rant": 1649,
      "raid": 1650,
      "Ġinf": 1651,
      "jeuner": 1652,
      "Ġthese": 1653,
      "ĠMay": 1654,
      "ell": 1655,
      "Ġcrois": 1656,
      "Ġdiffic": 1657,
      "onnes": 1658,
      "Ġwish": 1659,
      "ĠEngl": 1660,
      "Ġgag": 1661,
      "Ġbless": 1662,
      "Ġel": 1663,
      "ĠintÃ©ress": 1664,
      "Ġwater": 1665,
      "ienne": 1666,
      "ations": 1667,
      "Ġanswer": 1668,
      "Ġperdu": 1669,
      "rass": 1670,
      "ĠtrouvÃ©": 1671,
      "ĠfÃªte": 1672,
      "Ġsecre": 1673,
      "ĠK": 1674,
      "Ġlire": 1675,
      "llez": 1676,
      "Ġafraid": 1677,
      "ĠgÃ©": 1678,
      "Ã¨res": 1679,
      "aires": 1680,
      "Ġnu": 1681,
      "Ġvoud": 1682,
      "ich": 1683,
      "Ġstudy": 1684,
      "Ġmoins": 1685,
      "ral": 1686,
      "voir": 1687,
      "ĠCould": 1688,
      "Ġsing": 1689,
      "ĠsÅĵur": 1690,
      "Ġpouvons": 1691,
      "Ġleur": 1692,
      "Ġchoi": 1693,
      "Ġcam": 1694,
      "Ġjouer": 1695,
      "Ġconv": 1696,
      "ious": 1697,
      "Ġport": 1698,
      "Ġbro": 1699,
      "Ġdont": 1700,
      "accord": 1701,
      "Ġstop": 1702,
      "Ġpourrait": 1703,
      "Ġdevons": 1704,
      "Ġdemande": 1705,
      "Ġyoun": 1706,
      "ital": 1707,
      "Ġelse": 1708,
      "Ġeas": 1709,
      "ĠAu": 1710,
      "Ġmag": 1711,
      "Ġyourself": 1712,
      "Ġdeven": 1713,
      "Ġsortir": 1714,
      "ince": 1715,
      "Ġtravailler": 1716,
      "Ġabs": 1717,
      "ĠpiÃ¨ce": 1718,
      "ues": 1719,
      "ages": 1720,
      "Ġbeg": 1721,
      "illez": 1722,
      "Ġperson": 1723,
      "ared": 1724,
      "ĠÃ©p": 1725,
      "ĠUne": 1726,
      "gry": 1727,
      "util": 1728,
      "ĠÃ©taient": 1729,
      "erci": 1730,
      "tt": 1731,
      "ife": 1732,
      "Ġvois": 1733,
      "Ġsujet": 1734,
      "ĠJapan": 1735,
      "ĠPar": 1736,
      "Ġsuppos": 1737,
      "Ġvisit": 1738,
      "Ġstud": 1739,
      "Ġcold": 1740,
      "ip": 1741,
      "ĠBe": 1742,
      "Ġperm": 1743,
      "Ġgen": 1744,
      "Ġsau": 1745,
      "ished": 1746,
      "Ġnour": 1747,
      "ains": 1748,
      "Ġmari": 1749,
      "Ġrun": 1750,
      "entre": 1751,
      "ĠEnglish": 1752,
      "vres": 1753,
      "oid": 1754,
      "Ġsois": 1755,
      "Ġparty": 1756,
      "Ġment": 1757,
      "Ġnouvelle": 1758,
      "Ġdoit": 1759,
      "lui": 1760,
      "lt": 1761,
      "Ġappel": 1762,
      "Ġgreat": 1763,
      "Ġville": 1764,
      "ĠfrÃ¨re": 1765,
      "tr": 1766,
      "aie": 1767,
      "Ġsk": 1768,
      "Ġdonner": 1769,
      "Ġeff": 1770,
      "Ġmyself": 1771,
      "ĠtÃ©lÃ©phone": 1772,
      "ĠallÃ©": 1773,
      "Ġlearn": 1774,
      "Ġprop": 1775,
      "Ġpasser": 1776,
      "ments": 1777,
      "Ġdevriez": 1778,
      "ĠcafÃ©": 1779,
      "ĠvÃ©ritÃ©": 1780,
      "ience": 1781,
      "Ġerreur": 1782,
      "Ġcontr": 1783,
      "avons": 1784,
      "lo": 1785,
      "ork": 1786,
      "Ġfew": 1787,
      "ĠIn": 1788,
      "Ġtri": 1789,
      "isÃ©": 1790,
      "oke": 1791,
      "Ġgrande": 1792,
      "ĠjournÃ©e": 1793,
      "ĠÃ¢": 1794,
      "ces": 1795,
      "Ġgirl": 1796,
      "Ġstar": 1797,
      "Ġpresque": 1798,
      "Ġsecret": 1799,
      "Ġsign": 1800,
      "ater": 1801,
      "Ġemb": 1802,
      "toi": 1803,
      "led": 1804,
      "Ġglad": 1805,
      "Ġtalking": 1806,
      "Ġbought": 1807,
      "Ġpret": 1808,
      "Ġswim": 1809,
      "Ġoubl": 1810,
      "Ġbre": 1811,
      "Ġinvit": 1812,
      "Ġmatter": 1813,
      "avantage": 1814,
      "Ġsal": 1815,
      "hab": 1816,
      "Ġlettre": 1817,
      "ivers": 1818,
      "Ġretour": 1819,
      "Ġaime": 1820,
      "erve": 1821,
      "Ġentre": 1822,
      "ĠAr": 1823,
      "Ġwants": 1824,
      "Ġfaites": 1825,
      "cept": 1826,
      "rÃªte": 1827,
      "arm": 1828,
      "Ġtrouve": 1829,
      "apprÃ©c": 1830,
      "Ġdisp": 1831,
      "Ġaround": 1832,
      "ys": 1833,
      "Ġdavantage": 1834,
      "Ġwhile": 1835,
      "Ġletter": 1836,
      "ath": 1837,
      "ĠpensÃ©": 1838,
      "iser": 1839,
      "alement": 1840,
      "lÃł": 1841,
      "ites": 1842,
      "ause": 1843,
      "Ġnice": 1844,
      "ĠSon": 1845,
      "Ġearly": 1846,
      "Ġsoyez": 1847,
      "Ġtour": 1848,
      "Ġjeune": 1849,
      "rendre": 1850,
      "Ġfamille": 1851,
      "Ġpic": 1852,
      "Ġcount": 1853,
      "00": 1854,
      "Ġfilm": 1855,
      "Ġpartie": 1856,
      "Ġresp": 1857,
      "Ġmight": 1858,
      "ĠPouvez": 1859,
      "Ġgetting": 1860,
      "ĠdiffÃ©": 1861,
      "Ġphoto": 1862,
      "Ġable": 1863,
      "ĠdÃ©b": 1864,
      "Ġdanger": 1865,
      "Ġbure": 1866,
      "Ġfood": 1867,
      "Ġchau": 1868,
      "teau": 1869,
      "Ġtrue": 1870,
      "Ġprofess": 1871,
      "Ġadv": 1872,
      "Ġconnais": 1873,
      "iment": 1874,
      "illÃ©": 1875,
      "Ġbureau": 1876,
      "tif": 1877,
      "Ġdir": 1878,
      "onder": 1879,
      "ĠTo": 1880,
      "Ġdoll": 1881,
      "mÃªme": 1882,
      "Ġdevoir": 1883,
      "Ġparf": 1884,
      "pital": 1885,
      "Ġknows": 1886,
      "Ġmarried": 1887,
      "inner": 1888,
      "tel": 1889,
      "ctor": 1890,
      "Ġpap": 1891,
      "Ġsister": 1892,
      "Ġattention": 1893,
      "Ġempl": 1894,
      "Ġprod": 1895,
      "Ġsuppose": 1896,
      "Ġcontin": 1897,
      "Ġyear": 1898,
      "Ġlooks": 1899,
      "Ġsitu": 1900,
      "Ġdevez": 1901,
      "Ġanother": 1902,
      "most": 1903,
      "Ġlivres": 1904,
      "ug": 1905,
      "Ġpetite": 1906,
      "ĠdonnÃ©": 1907,
      "Ġ2": 1908,
      "Ġbreak": 1909,
      "Ġtried": 1910,
      "Ġwonder": 1911,
      "ia": 1912,
      "Ġcuis": 1913,
      "Ġvoulait": 1914,
      "iv": 1915,
      "Ġhurt": 1916,
      "more": 1917,
      "any": 1918,
      "ĠPeux": 1919,
      "uth": 1920,
      "ize": 1921,
      "Ġtermin": 1922,
      "ustral": 1923,
      "Ġarg": 1924,
      "Ġstart": 1925,
      "Ġaucune": 1926,
      "emp": 1927,
      "Ġtellement": 1928,
      "ĠDis": 1929,
      "ĠÃ©tiez": 1930,
      "ision": 1931,
      "Ġgent": 1932,
      "Ġaren": 1933,
      "Ġtennis": 1934,
      "era": 1935,
      "cin": 1936,
      "Ġfau": 1937,
      "Ã©d": 1938,
      "Ġcombien": 1939,
      "Ġyoung": 1940,
      "Ġmeeting": 1941,
      "Ġbeautif": 1942,
      "reux": 1943,
      "Ġbrother": 1944,
      "nes": 1945,
      "Ġchat": 1946,
      "Ġfall": 1947,
      "rire": 1948,
      "Ġown": 1949,
      "iers": 1950,
      "Ġwind": 1951,
      "Ġsuch": 1952,
      "Ġanymore": 1953,
      "Ġchant": 1954,
      "Ġlisten": 1955,
      "Ġhun": 1956,
      "Ġinter": 1957,
      "Ġaide": 1958,
      "Ġforg": 1959,
      "ible": 1960,
      "isf": 1961,
      "ĠSome": 1962,
      "Ġbeautiful": 1963,
      "Ġwouldn": 1964,
      "Ġmov": 1965,
      "Ġcri": 1966,
      "joy": 1967,
      "aide": 1968,
      "ression": 1969,
      "Ġpouvoir": 1970,
      "Ġvenu": 1971,
      "Ġfeu": 1972,
      "Ġtruth": 1973,
      "Ġcertain": 1974,
      "ĠoccupÃ©": 1975,
      "ĠdÃ©solÃ©": 1976,
      "Ġdifficult": 1977,
      "Ġrel": 1978,
      "Ġfini": 1979,
      "io": 1980,
      "ances": 1981,
      "inc": 1982,
      "onque": 1983,
      "Ġrestau": 1984,
      "Ġenfant": 1985,
      "uie": 1986,
      "Ã©p": 1987,
      "ĠrÃ©un": 1988,
      "Ġdays": 1989,
      "ĠPeu": 1990,
      "Ã©tÃ©": 1991,
      "Ġbecause": 1992,
      "iction": 1993,
      "ĠdÃ©jeuner": 1994,
      "Ġmean": 1995,
      "ĠVeu": 1996,
      "ĠprÃ©fÃ©": 1997,
      "ĠÃ©tais": 1998,
      "cted": 1999,
      "Ġprend": 2000,
      "ĠÃ©tudi": 2001,
      "ffee": 2002,
      "ĠprÃ©sent": 2003,
      "ĠVeuillez": 2004,
      "Ġstation": 2005,
      "omm": 2006,
      "Ġcin": 2007,
      "Ġnager": 2008,
      "Ġvoi": 2009,
      "Ġmine": 2010,
      "Ġey": 2011,
      "pl": 2012,
      "quÃ©": 2013,
      "Ġattend": 2014,
      "Ġsatisf": 2015,
      "Ġcal": 2016,
      "Ã©ro": 2017,
      "tez": 2018,
      "ied": 2019,
      "Ġdix": 2020,
      "idi": 2021,
      "adore": 2022,
      "Ġfar": 2023,
      "Ġcop": 2024,
      "Ġsous": 2025,
      "ĠPren": 2026,
      "Ġcoming": 2027,
      "ken": 2028,
      "ny": 2029,
      "ateur": 2030,
      "Ġcoffee": 2031,
      "Ġsugg": 2032,
      "Ġamus": 2033,
      "rÃ©e": 2034,
      "Ġprobable": 2035,
      "ĠmangÃ©": 2036,
      "riture": 2037,
      "Ġnat": 2038,
      "Ġconfi": 2039,
      "Ġdemander": 2040,
      "gard": 2041,
      "ĠTell": 2042,
      "Ġviens": 2043,
      "Ġenjoy": 2044,
      "Ġsuff": 2045,
      "Ġvas": 2046,
      "Ġalmost": 2047,
      "itude": 2048,
      "Ġkid": 2049,
      "ĠQuelqu": 2050,
      "rence": 2051,
      "Ġenvie": 2052,
      "Ġdinner": 2053,
      "ommes": 2054,
      "Ġris": 2055,
      "Ġdevrait": 2056,
      "avor": 2057,
      "ĠtÃªte": 2058,
      "Ġaucun": 2059,
      "llow": 2060,
      "port": 2061,
      "Ġutil": 2062,
      "Ġheureuse": 2063,
      "ĠMerci": 2064,
      "Ġchaque": 2065,
      "Ġsituation": 2066,
      "Ġdress": 2067,
      "Ġsouh": 2068,
      "ĠEveryone": 2069,
      "ĠrÃ©union": 2070,
      "Ġmois": 2071,
      "Ġvite": 2072,
      "Ġdoctor": 2073,
      "Ġmalade": 2074,
      "aise": 2075,
      "Ġonce": 2076,
      "Ġvivre": 2077,
      "arge": 2078,
      "Ġvac": 2079,
      "urer": 2080,
      "Ġserait": 2081,
      "Ġseulement": 2082,
      "Ġdiffe": 2083,
      "Ġwaiting": 2084,
      "Ġvieux": 2085,
      "Ġbooks": 2086,
      "Ġhor": 2087,
      "gether": 2088,
      "Ġmess": 2089,
      "Ġwin": 2090,
      "icy": 2091,
      "Ġdro": 2092,
      "Ġlorsque": 2093,
      "ĠcolÃ¨re": 2094,
      "ĠdÃ®": 2095,
      "olog": 2096,
      "Ġfamily": 2097,
      "ĠÃ©tr": 2098,
      "Ġpersonnes": 2099,
      "Ġcareful": 2100,
      "Ġfavor": 2101,
      "ĠmÃ©de": 2102,
      "Ġhate": 2103,
      "Ġshouldn": 2104,
      "iques": 2105,
      "Ġsong": 2106,
      "Ġgare": 2107,
      "Ġcomprendre": 2108,
      "oulez": 2109,
      "ĠVeux": 2110,
      "Ġtonight": 2111,
      "Ġminute": 2112,
      "Ġpourrais": 2113,
      "Ġacheter": 2114,
      "Ġcomprends": 2115,
      "Ġtogether": 2116,
      "Ġnews": 2117,
      "Ġfils": 2118,
      "Ġrestaurant": 2119,
      "Ġbit": 2120,
      "Ġdevrions": 2121,
      "Ġty": 2122,
      "Ġsix": 2123,
      "oon": 2124,
      "Ġexam": 2125,
      "son": 2126,
      "ume": 2127,
      "Ġferais": 2128,
      "ball": 2129,
      "rir": 2130,
      "ĠVoulez": 2131,
      "ĠDonne": 2132,
      "ĠArrÃªte": 2133,
      "Ġensemble": 2134,
      "ĠFais": 2135,
      "ĠsÃ»re": 2136,
      "Ġwrite": 2137,
      "ĠdÃ©r": 2138,
      "ream": 2139,
      "aught": 2140,
      "Ġfacile": 2141,
      "ĠSa": 2142,
      "Ġnourriture": 2143,
      "Ġserai": 2144,
      "Ġfelt": 2145,
      "ĠdÃ©teste": 2146,
      "ĠCes": 2147,
      "Ġcook": 2148,
      "ĠfatiguÃ©": 2149,
      "Ġap": 2150,
      "Ġrap": 2151,
      "Ġvoudrais": 2152,
      "Ġtemp": 2153,
      "Ġsour": 2154,
      "Ġdispos": 2155,
      "used": 2156,
      "Ġmeilleur": 2157,
      "ĠgarÃ§on": 2158,
      "Ġtrying": 2159,
      "Ġarrive": 2160,
      "Ġreconn": 2161,
      "Ġwrit": 2162,
      "Ġinst": 2163,
      "Ġsomeone": 2164,
      "Ġbag": 2165,
      "Ġkill": 2166,
      "ĠJapon": 2167,
      "Ġdollars": 2168,
      "Ġworking": 2169,
      "Ġyeux": 2170,
      "Ġconduire": 2171,
      "Ġpays": 2172,
      "Ġvit": 2173,
      "Ġfroid": 2174,
      "Ġexac": 2175,
      "ĠthÃ©": 2176,
      "Ġlikes": 2177,
      "Ġforget": 2178,
      "Ġbri": 2179,
      "Ġeach": 2180,
      "agin": 2181,
      "ĠprÃ¨s": 2182,
      "pped": 2183,
      "Ġcours": 2184,
      "Ġvue": 2185,
      "Ġain": 2186,
      "Ġlaisser": 2187,
      "Ġseems": 2188,
      "we": 2189,
      "Ġact": 2190,
      "Ġtrou": 2191,
      "Ġboth": 2192,
      "Ġreal": 2193,
      "Ġmettre": 2194,
      "ĠrÃ©ponse": 2195,
      "Ġprud": 2196,
      "Ġhist": 2197,
      "Ġworld": 2198,
      "Ġlonger": 2199,
      "Ġphone": 2200,
      "Ġsit": 2201,
      "Ġeasy": 2202,
      "Ġbir": 2203,
      "ĠmaniÃ¨re": 2204,
      "ĠGet": 2205,
      "oyez": 2206,
      "Ġdiction": 2207,
      "Ġface": 2208,
      "30": 2209,
      "Ġrou": 2210,
      "Ġinform": 2211,
      "ĠoubliÃ©": 2212,
      "ĠcÃ´": 2213,
      "Ã§u": 2214,
      "ler": 2215,
      "Ġfen": 2216,
      "Ġplais": 2217,
      "Ġserais": 2218,
      "ĠLaisse": 2219,
      "Ã©g": 2220,
      "ĠÃ©crit": 2221,
      "Ġboire": 2222,
      "ĠTake": 2223,
      "Ġpretty": 2224,
      "Ġjourn": 2225,
      "Ġrespons": 2226,
      "oman": 2227,
      "Ġsucc": 2228,
      "ĠlaissÃ©": 2229,
      "ret": 2230,
      "Ġword": 2231,
      "Ġregarder": 2232,
      "Ġsick": 2233,
      "ark": 2234,
      "Ġlight": 2235,
      "Ġreste": 2236,
      "ientÃ´t": 2237,
      "ige": 2238,
      "ĠrÃª": 2239,
      "Ġir": 2240,
      "ĠWill": 2241,
      "ras": 2242,
      "Ġconfiance": 2243,
      "Ġbeh": 2244,
      "ĠAustral": 2245,
      "Ġchemin": 2246,
      "Ġpian": 2247,
      "Ġdied": 2248,
      "ĠcoÃ»": 2249,
      "ĠSh": 2250,
      "Ġexact": 2251,
      "Ġpremier": 2252,
      "Ã¨te": 2253,
      "Ġamie": 2254,
      "Ġautant": 2255,
      "til": 2256,
      "ĠsÃ©ri": 2257,
      "Ġrapide": 2258,
      "Ġtravaille": 2259,
      "ĠessayÃ©": 2260,
      "Ġbelle": 2261,
      "lot": 2262,
      "ually": 2263,
      "Ġmen": 2264,
      "Ġair": 2265,
      "Ġsl": 2266,
      "Ġcelui": 2267,
      "Ġbi": 2268,
      "Ġstarted": 2269,
      "rons": 2270,
      "Ġpubl": 2271,
      "Ġfon": 2272,
      "vision": 2273,
      "Ġtravers": 2274,
      "Ġconnaiss": 2275,
      "Ġcompte": 2276,
      "Ġainsi": 2277,
      "Ã©lo": 2278,
      "ĠGo": 2279,
      "Ġhigh": 2280,
      "ĠGive": 2281,
      "Ġwife": 2282,
      "Ġbicy": 2283,
      "attend": 2284,
      "cep": 2285,
      "Ġclass": 2286,
      "Ġautres": 2287,
      "Ġexactement": 2288,
      "ĠThank": 2289,
      "Ġdormir": 2290,
      "oubl": 2291,
      "Ġstand": 2292,
      "oyer": 2293,
      "oig": 2294,
      "dic": 2295,
      "Ġgone": 2296,
      "Ġfinished": 2297,
      "occ": 2298,
      "ĠbientÃ´t": 2299,
      "ande": 2300,
      "Ġdernier": 2301,
      "Ġcontre": 2302,
      "ĠDoes": 2303,
      "ĠparlÃ©": 2304,
      "Ġstupid": 2305,
      "Ġbor": 2306,
      "Ġtax": 2307,
      "Ġwindow": 2308,
      "Ġfit": 2309,
      "Ġsurprised": 2310,
      "Ġwear": 2311,
      "Ġprison": 2312,
      "Ġarriver": 2313,
      "ĠÂ»": 2314,
      "Ġfour": 2315,
      "Ġbicycle": 2316,
      "Ġtant": 2317,
      "Ġspend": 2318,
      "cer": 2319,
      "na": 2320,
      "ission": 2321,
      "Ġluck": 2322,
      "Ġmost": 2323,
      "Ġvoyage": 2324,
      "Ġconna": 2325,
      "Ġarriv": 2326,
      "Ġprix": 2327,
      "Ġthose": 2328,
      "Ġfig": 2329,
      "Ġendroit": 2330,
      "Ġmil": 2331,
      "Ġfa": 2332,
      "ĠvÃ©lo": 2333,
      "anche": 2334,
      "ason": 2335,
      "Ġrad": 2336,
      "ĠStop": 2337,
      "ĠcÃ´tÃ©": 2338,
      "Ġcontent": 2339,
      "Ġdrive": 2340,
      "Ġvient": 2341,
      "ided": 2342,
      "Ġart": 2343,
      "agne": 2344,
      "Ġchauss": 2345,
      "Ġanim": 2346,
      "eure": 2347,
      "Ġsy": 2348,
      "Ġmusic": 2349,
      "ky": 2350,
      "Ġlooked": 2351,
      "arrÃªt": 2352,
      "Ġattendre": 2353,
      "Ġparti": 2354,
      "Ġmusique": 2355,
      "ĠmÃ©decin": 2356,
      "Ġtor": 2357,
      "Ġboulot": 2358,
      "midi": 2359,
      "Ġ\"": 2360,
      "aite": 2361,
      "Ġadm": 2362,
      "ĠRegard": 2363,
      "Ġnos": 2364,
      "ĠÃīt": 2365,
      "Ġforgot": 2366,
      "Ġfollow": 2367,
      "Ġmistake": 2368,
      "cu": 2369,
      "ĠdÃ®ner": 2370,
      "Ġalors": 2371,
      "Ġpouvais": 2372,
      "Ġrentre": 2373,
      "Ġpied": 2374,
      "Ġquite": 2375,
      "uy": 2376,
      "vert": 2377,
      "Ġdess": 2378,
      "Ġcheve": 2379,
      "Ġlunch": 2380,
      "Ġcontinu": 2381,
      "Ġprobablement": 2382,
      "Ġfou": 2383,
      "iconque": 2384,
      "Ġchans": 2385,
      "antÃ©": 2386,
      "Ġplut": 2387,
      "amment": 2388,
      "Ġverre": 2389,
      "apprÃ©cie": 2390,
      "iquer": 2391,
      "bÃ©": 2392,
      "ever": 2393,
      "Ġbois": 2394,
      "ĠApp": 2395,
      "Ġprochaine": 2396,
      "Ġmange": 2397,
      "where": 2398,
      "Ġmour": 2399,
      "Ġmonth": 2400,
      "Ġpenser": 2401,
      "ettes": 2402,
      "Ġpiano": 2403,
      "Ġgenre": 2404,
      "iness": 2405,
      "Ã©cess": 2406,
      "Ġsil": 2407,
      "resse": 2408,
      "ĠCome": 2409,
      "ĠPeut": 2410,
      "ured": 2411,
      "Ġcomple": 2412,
      "ĠrÃ©f": 2413,
      "Ġplait": 2414,
      "Ġloin": 2415,
      "Ġlieu": 2416,
      "Ġtru": 2417,
      "Ġnear": 2418,
      "Ġhum": 2419,
      "ĠNob": 2420,
      "Ġoffice": 2421,
      "Ġchang": 2422,
      "urg": 2423,
      "Ġprofesseur": 2424,
      "ĠÃ¢ge": 2425,
      "Ġfire": 2426,
      "rente": 2427,
      "ked": 2428,
      "ĠMes": 2429,
      "Ġmovie": 2430,
      "ock": 2431,
      "ĠLaissez": 2432,
      "rible": 2433,
      "iller": 2434,
      "Ġuntil": 2435,
      "ĠTous": 2436,
      "Ġopin": 2437,
      "Ġcas": 2438,
      "Ġhon": 2439,
      "ettre": 2440,
      "hors": 2441,
      "lais": 2442,
      "ĠbÃ©": 2443,
      "ĠNobody": 2444,
      "Ġweather": 2445,
      "Ġvers": 2446,
      "arer": 2447,
      "Ġcheveux": 2448,
      "Ġtrust": 2449,
      "tur": 2450,
      "Ġstory": 2451,
      "ĠgÃ¢": 2452,
      "hÃ´": 2453,
      "Ġhair": 2454,
      "Ġru": 2455,
      "ates": 2456,
      "Â»": 2457,
      "ĠnÃ©cess": 2458,
      "Ġmakes": 2459,
      "Ġpuisse": 2460,
      "Ġbat": 2461,
      "intÃ©": 2462,
      "ating": 2463,
      "Ġtrans": 2464,
      "Ġpois": 2465,
      "Ġpenses": 2466,
      "Ġcause": 2467,
      "aites": 2468,
      "Ġeveryone": 2469,
      "Ġunder": 2470,
      "Ġsupposed": 2471,
      "ĠpremiÃ¨re": 2472,
      "ĠplutÃ´t": 2473,
      "Ġworry": 2474,
      "Ġeyes": 2475,
      "man": 2476,
      "oss": 2477,
      "Ġmontre": 2478,
      "Ġtick": 2479,
      "Ġyours": 2480,
      "ĠTV": 2481,
      "ĠapprÃ©c": 2482,
      "Ġdream": 2483,
      "Ġsince": 2484,
      "Ġdehors": 2485,
      "Ġjournal": 2486,
      "Ġpromis": 2487,
      "usement": 2488,
      "Ġchanter": 2489,
      "Ġhabit": 2490,
      "anglais": 2491,
      "ĠfenÃªtre": 2492,
      "venu": 2493,
      "Ġdri": 2494,
      "Ġsac": 2495,
      "Ġimagin": 2496,
      "Ã¨mes": 2497,
      "Ġcorre": 2498,
      "Ġserious": 2499,
      "ĠprÃ©v": 2500,
      "work": 2501,
      "Ġfast": 2502,
      "Ġhours": 2503,
      "Ġago": 2504,
      "ably": 2505,
      "nent": 2506,
      "avait": 2507,
      "Ġanybody": 2508,
      "Ġactu": 2509,
      "em": 2510,
      "Ġban": 2511,
      "Ġpop": 2512,
      "enses": 2513,
      "eler": 2514,
      "ward": 2515,
      "Ġappris": 2516,
      "aines": 2517,
      "Ġclos": 2518,
      "Ġdiscuss": 2519,
      "Ġangry": 2520,
      "Ġhead": 2521,
      "Ġguit": 2522,
      "ject": 2523,
      "Ġbroke": 2524,
      "mÃ©di": 2525,
      "Ġreading": 2526,
      "Ġsmall": 2527,
      "Ġpayer": 2528,
      "Ġproduit": 2529,
      "Ġfaim": 2530,
      "Ġsus": 2531,
      "riÃ¨re": 2532,
      "paravant": 2533,
      "Ġfonction": 2534,
      "Ġguess": 2535,
      "Ġagree": 2536,
      "ial": 2537,
      "uf": 2538,
      "ĠÃ©ch": 2539,
      "rÃ©s": 2540,
      "ze": 2541,
      "Ġtimes": 2542,
      "Ġval": 2543,
      "less": 2544,
      "ĠsÃ©": 2545,
      "ignor": 2546,
      "ĠdÃ©m": 2547,
      "Ġchoix": 2548,
      "homme": 2549,
      "Ġleurs": 2550,
      "uritÃ©": 2551,
      "ĠdÃ©cidÃ©": 2552,
      "ĠVotre": 2553,
      "ution": 2554,
      "ĠEss": 2555,
      "Ġesp": 2556,
      "Ġjoue": 2557,
      "Ġessayer": 2558,
      "enir": 2559,
      "Ġsuper": 2560,
      "Ġargent": 2561,
      "ĠJust": 2562,
      "ghter": 2563,
      "Ġpatient": 2564,
      "ib": 2565,
      "blig": 2566,
      "Ġauparavant": 2567,
      "importe": 2568,
      "ron": 2569,
      "Ġhaving": 2570,
      "Ġexactly": 2571,
      "Ãªcher": 2572,
      "ĠimmÃ©di": 2573,
      "Ġjoin": 2574,
      "Ġallons": 2575,
      "Ġfell": 2576,
      "Ġadvice": 2577,
      "Ġouv": 2578,
      "Ġvin": 2579,
      "Ġhimself": 2580,
      "Ġpicture": 2581,
      "atement": 2582,
      "ĠFr": 2583,
      "Ġpeuvent": 2584,
      "asses": 2585,
      "Ġregret": 2586,
      "Ġplaying": 2587,
      "Ġentendre": 2588,
      "Ġradio": 2589,
      "Ġchanger": 2590,
      "Ġclose": 2591,
      "Ġkiss": 2592,
      "Ġcolle": 2593,
      "Ġchaud": 2594,
      "ables": 2595,
      "Ġexpect": 2596,
      "ĠrÃ©ve": 2597,
      "Ġfoot": 2598,
      "Ġcalled": 2599,
      "ls": 2600,
      "Ġdist": 2601,
      "Ġadd": 2602,
      "Ġtrouble": 2603,
      "Ġsafe": 2604,
      "Ã¯": 2605,
      "Ġusually": 2606,
      "ĠsÃ©c": 2607,
      "glais": 2608,
      "arrass": 2609,
      "ĠOur": 2610,
      "Ġcaught": 2611,
      "llig": 2612,
      "Ġconcert": 2613,
      "noon": 2614,
      "Ġpleu": 2615,
      "Ġrencontrer": 2616,
      "tenir": 2617,
      "Ġsurprise": 2618,
      "Ġtre": 2619,
      "Ġdiscuter": 2620,
      "ical": 2621,
      "ĠAm": 2622,
      "Ġdites": 2623,
      "Ġfeeling": 2624,
      "Ġafternoon": 2625,
      "Ġju": 2626,
      "Ġreason": 2627,
      "Ġsays": 2628,
      "Ġlives": 2629,
      "cs": 2630,
      "Ġviend": 2631,
      "Ġmarcher": 2632,
      "Ġdecided": 2633,
      "Ġste": 2634,
      "Ġstudents": 2635,
      "ĠPourriez": 2636,
      "Ġcountry": 2637,
      "Ġexplain": 2638,
      "Ġfree": 2639,
      "Ġran": 2640,
      "ĠÃ©g": 2641,
      "Ġturned": 2642,
      "Ġclean": 2643,
      "ced": 2644,
      "ĠproblÃ¨mes": 2645,
      "alth": 2646,
      "Ġapprendre": 2647,
      "Ġfix": 2648,
      "ĠdÃ©solÃ©e": 2649,
      "Ġhands": 2650,
      "kyo": 2651,
      "Ġopinion": 2652,
      "Ġbill": 2653,
      "Ġhistoire": 2654,
      "Ġbout": 2655,
      "Ġdevoirs": 2656,
      "Ġinterested": 2657,
      "ctu": 2658,
      "als": 2659,
      "Ġviv": 2660,
      "ĠTokyo": 2661,
      "Ġesc": 2662,
      "Ġnouvelles": 2663,
      "Ġpouvait": 2664,
      "Ġprochain": 2665,
      "Ġred": 2666,
      "Ġeating": 2667,
      "Ġarm": 2668,
      "ĠimmÃ©diatement": 2669,
      "Ġcommence": 2670,
      "Ġpopul": 2671,
      "Ġhot": 2672,
      "Ġteach": 2673,
      "Ġallow": 2674,
      "Ġcry": 2675,
      "Ġweren": 2676,
      "Ġappre": 2677,
      "Ġconvain": 2678,
      "Ġdau": 2679,
      "Ġpensez": 2680,
      "Ġintellig": 2681,
      "Ġtent": 2682,
      "Ġbar": 2683,
      "Ġtype": 2684,
      "side": 2685,
      "Ġprobably": 2686,
      "Ã§ons": 2687,
      "Ã´le": 2688,
      "Ġbas": 2689,
      "iner": 2690,
      "li": 2691,
      "Ġmessage": 2692,
      "ĠprÃ©c": 2693,
      "Ġimpos": 2694,
      "Ġvisite": 2695,
      "aille": 2696,
      "Ġproud": 2697,
      "Ġinteresting": 2698,
      "Ġrac": 2699,
      "ĠNotre": 2700,
      "rou": 2701,
      "meric": 2702,
      "Ġappreci": 2703,
      "apon": 2704,
      "Ġvont": 2705,
      "Ġarrived": 2706,
      "ĠprÃ©f": 2707,
      "ĠrÃ©pondre": 2708,
      "others": 2709,
      "Ġperdre": 2710,
      "Ã©m": 2711,
      "ĠHer": 2712,
      "Ġsembl": 2713,
      "Ġoblig": 2714,
      "akes": 2715,
      "Ġbox": 2716,
      "orth": 2717,
      "ĠsÃ©curitÃ©": 2718,
      "ĠÅĵ": 2719,
      "ĠAmeric": 2720,
      "ĠrencontrÃ©": 2721,
      "Ġcass": 2722,
      "Ġtown": 2723,
      "ĠoccupÃ©e": 2724,
      "Ġdead": 2725,
      "ĠÃ©tions": 2726,
      "ĠEverybody": 2727,
      "ĠPourrais": 2728,
      "Ã¨ve": 2729,
      "Ġnumber": 2730,
      "user": 2731,
      "Ġthr": 2732,
      "Ġsuffis": 2733,
      "Ġanglais": 2734,
      "Ġthinking": 2735,
      "Ġdisapp": 2736,
      "Ġcost": 2737,
      "Ġmoy": 2738,
      "Ġsold": 2739,
      "venir": 2740,
      "Ġdifferent": 2741,
      "ĠrÃ¨": 2742,
      "ĠboÃ®": 2743,
      "Ġgame": 2744,
      "Ġenseign": 2745,
      "vit": 2746,
      "Ġsavez": 2747,
      "Ġpeine": 2748,
      "Ġind": 2749,
      "Ġlangu": 2750,
      "let": 2751,
      "Ġattrap": 2752,
      "Ġordin": 2753,
      "ĠcommencÃ©": 2754,
      "Ġlib": 2755,
      "ĠAtt": 2756,
      "enez": 2757,
      "Ġparce": 2758,
      "usÃ©": 2759,
      "lÃ©ch": 2760,
      "Ġchaussures": 2761,
      "Ġparc": 2762,
      "Ġamou": 2763,
      "ĠnÃ©cessaire": 2764,
      "Ġsnow": 2765,
      "alent": 2766,
      "quipe": 2767,
      "Ã®tre": 2768,
      "eep": 2769,
      "Ġadvis": 2770,
      "Ġpun": 2771,
      "ĠVoud": 2772,
      "Ġchercher": 2773,
      "igne": 2774,
      "iot": 2775,
      "Ġsavait": 2776,
      "Ġgagner": 2777,
      "Ġlaw": 2778,
      "Ġleav": 2779,
      "ĠLook": 2780,
      "ĠterminÃ©": 2781,
      "Ã¨tement": 2782,
      "cked": 2783,
      "Ġlum": 2784,
      "Ġthir": 2785,
      "Ġfier": 2786,
      "Ġmains": 2787,
      "Ġcatch": 2788,
      "agÃ©": 2789,
      "Ġcu": 2790,
      "Ġbab": 2791,
      "Ġthrough": 2792,
      "rieur": 2793,
      "Ġmagas": 2794,
      "Ġsum": 2795,
      "lly": 2796,
      "ĠÃ©crire": 2797,
      "ered": 2798,
      "ĠWhich": 2799,
      "ized": 2800,
      "Ġdispose": 2801,
      "Ġquick": 2802,
      "Ġhomework": 2803,
      "Ġmach": 2804,
      "Ġsub": 2805,
      "agit": 2806,
      "Ġallez": 2807,
      "Ġrevoir": 2808,
      "Ã¢t": 2809,
      "Ġlater": 2810,
      "Ġcent": 2811,
      "Ġchois": 2812,
      "inst": 2813,
      "gr": 2814,
      "Ġriche": 2815,
      "dd": 2816,
      "icul": 2817,
      "Ġappro": 2818,
      "Ġage": 2819,
      "oh": 2820,
      "Ġcade": 2821,
      "Ġtele": 2822,
      "ĠThese": 2823,
      "Ġcinq": 2824,
      "Ġdaughter": 2825,
      "Ġtomber": 2826,
      "ĠJapanese": 2827,
      "Ġcoin": 2828,
      "ĠcomplÃ¨tement": 2829,
      "ĠKeep": 2830,
      "Ġadvised": 2831,
      "ĠÃ©tudier": 2832,
      "Ġlangue": 2833,
      "Ġclasse": 2834,
      "Ġfavorite": 2835,
      "ĠsantÃ©": 2836,
      "amed": 2837,
      "Ġrent": 2838,
      "Ġtrip": 2839,
      "irer": 2840,
      "leurs": 2841,
      "Ġnombreux": 2842,
      "Ġimpossible": 2843,
      "Ġgi": 2844,
      "Ġpropre": 2845,
      ".\"": 2846,
      "ĠNot": 2847,
      "ĠVoi": 2848,
      "ched": 2849,
      "fect": 2850,
      "cteur": 2851,
      "onde": 2852,
      "Ġaurait": 2853,
      "ĠblessÃ©": 2854,
      "Ġpublic": 2855,
      "Ġsoi": 2856,
      "Ġimm": 2857,
      "Ġsuggest": 2858,
      "Ġvoulons": 2859,
      "ĠÃ©cout": 2860,
      "bas": 2861,
      "quel": 2862,
      "ĠPense": 2863,
      "Ġassis": 2864,
      "Ġappreciate": 2865,
      "Ġavais": 2866,
      "peau": 2867,
      "Ġnum": 2868,
      "lus": 2869,
      "ray": 2870,
      "Ġrentrer": 2871,
      "Ġpark": 2872,
      "ric": 2873,
      "Ġferai": 2874,
      "oking": 2875,
      "Ġpress": 2876,
      "antes": 2877,
      "ĠSais": 2878,
      "erais": 2879,
      "Ġrich": 2880,
      "Ġchanson": 2881,
      "ther": 2882,
      "quelle": 2883,
      "Ġcertaine": 2884,
      "ĠdÃ©cision": 2885,
      "gan": 2886,
      "arri": 2887,
      "Ġaband": 2888,
      "ned": 2889,
      "Ġlarge": 2890,
      "Ġoutside": 2891,
      "Ġlundi": 2892,
      "Ġils": 2893,
      "Ġbruit": 2894,
      "Ġcapable": 2895,
      "Ġsto": 2896,
      "not": 2897,
      "Ġsun": 2898,
      "Ġhos": 2899,
      "Ġagainst": 2900,
      "Ġaccep": 2901,
      "gÃ©": 2902,
      "Ã§a": 2903,
      "Ġprin": 2904,
      "ĠPenses": 2905,
      "Ġenn": 2906,
      "Ġfrapp": 2907,
      "Ġtouch": 2908,
      "ĠFaites": 2909,
      "ately": 2910,
      "Ġtaxi": 2911,
      "Ġlaisse": 2912,
      "Ġfinish": 2913,
      "Ġdim": 2914,
      "Ġsaying": 2915,
      "Ġliving": 2916,
      "ĠDites": 2917,
      "Ġemploi": 2918,
      "Ġbase": 2919,
      "ĠderriÃ¨re": 2920,
      "ĠdÃ©f": 2921,
      "Ã©tud": 2922,
      "Ġsorte": 2923,
      "Ġdevenir": 2924,
      "ither": 2925,
      "cient": 2926,
      "Ġgrow": 2927,
      "oyÃ©": 2928,
      "ĠboÃ®te": 2929,
      "ĠcÅĵur": 2930,
      "ĠEx": 2931,
      "Ġrapidement": 2932,
      "ĠbiÃ¨re": 2933,
      "Ġthen": 2934,
      "Ġsignif": 2935,
      "Ġdiv": 2936,
      "Ġdroit": 2937,
      "Ġneeds": 2938,
      "Ġly": 2939,
      "ĠreÃ§u": 2940,
      "Ġhospital": 2941,
      "ĠÃ©le": 2942,
      "habitude": 2943,
      "Ġbusiness": 2944,
      "zz": 2945,
      "ensive": 2946,
      "Ġcomputer": 2947,
      "Ġfumer": 2948,
      "ĠnumÃ©ro": 2949,
      "cess": 2950,
      "Ġjapon": 2951,
      "Ġsuit": 2952,
      "Ġresse": 2953,
      "Ġautor": 2954,
      "Ġsimple": 2955,
      "ĠtÃ©lÃ©vision": 2956,
      "Ġkept": 2957,
      "unk": 2958,
      "ĠOK": 2959,
      "Ġbecome": 2960,
      "viens": 2961,
      "annÃ©e": 2962,
      "ĠappelÃ©": 2963,
      "ĠfaÃ§on": 2964,
      "Ġele": 2965,
      "tte": 2966,
      "Ġtree": 2967,
      "Ġlie": 2968,
      "Ġwine": 2969,
      "ps": 2970,
      "Ġperd": 2971,
      "Ġlau": 2972,
      "Ġsui": 2973,
      "Ã©tr": 2974,
      "Ġhungry": 2975,
      "Ġvacances": 2976,
      "ĠPensez": 2977,
      "ication": 2978,
      "ĠaimÃ©": 2979,
      "Ġstrong": 2980,
      "irÃ©": 2981,
      "pected": 2982,
      "cÃ©": 2983,
      "ower": 2984,
      "ĠÃ©l": 2985,
      "naire": 2986,
      "Ġtrente": 2987,
      "Ġimpression": 2988,
      "omet": 2989,
      "Ġmontrer": 2990,
      "ĠbÃ©bÃ©": 2991,
      "lent": 2992,
      "Ġsound": 2993,
      "Ġtrave": 2994,
      "Ġtaking": 2995,
      "lfriend": 2996,
      "iquÃ©": 2997,
      "Ġplain": 2998,
      "Ġpoi": 2999
    },
    "merges": [
      [
        "o",
        "u"
      ],
      [
        "Ġ",
        "t"
      ],
      [
        "r",
        "e"
      ],
      [
        "Ġ",
        "d"
      ],
      [
        "Ġ",
        "a"
      ],
      [
        "Ġ",
        "p"
      ],
      [
        "Ġ",
        "s"
      ],
      [
        "o",
        "n"
      ],
      [
        "e",
        "s"
      ],
      [
        "a",
        "i"
      ],
      [
        "e",
        "n"
      ],
      [
        "Ġ",
        "l"
      ],
      [
        "e",
        "r"
      ],
      [
        "Ġ",
        "c"
      ],
      [
        "Ã",
        "©"
      ],
      [
        "Ġ",
        "m"
      ],
      [
        "Ġ",
        "I"
      ],
      [
        "i",
        "n"
      ],
      [
        "i",
        "s"
      ],
      [
        "h",
        "e"
      ],
      [
        "Ġ",
        "n"
      ],
      [
        "a",
        "n"
      ],
      [
        "o",
        "m"
      ],
      [
        "q",
        "u"
      ],
      [
        "Ġ",
        "f"
      ],
      [
        "a",
        "s"
      ],
      [
        "Ġ",
        "w"
      ],
      [
        "Ġ",
        "T"
      ],
      [
        "Ġ",
        "v"
      ],
      [
        "Ġ",
        "b"
      ],
      [
        "l",
        "l"
      ],
      [
        "Ġ",
        "J"
      ],
      [
        "Ġ",
        "y"
      ],
      [
        "Ġd",
        "e"
      ],
      [
        "a",
        "t"
      ],
      [
        "ou",
        "s"
      ],
      [
        "Ġ",
        "qu"
      ],
      [
        "i",
        "t"
      ],
      [
        "Ġy",
        "ou"
      ],
      [
        "a",
        "r"
      ],
      [
        "Ġ",
        "h"
      ],
      [
        "Ġt",
        "o"
      ],
      [
        "en",
        "t"
      ],
      [
        "v",
        "e"
      ],
      [
        "o",
        "r"
      ],
      [
        "Ġ",
        "Ã"
      ],
      [
        "ĠJ",
        "e"
      ],
      [
        "u",
        "n"
      ],
      [
        "es",
        "t"
      ],
      [
        "Ġp",
        "as"
      ],
      [
        "ai",
        "s"
      ],
      [
        "Ġt",
        "he"
      ],
      [
        "Ġqu",
        "e"
      ],
      [
        "Ġt",
        "h"
      ],
      [
        "l",
        "e"
      ],
      [
        "ĠT",
        "om"
      ],
      [
        "Ġ",
        "g"
      ],
      [
        "in",
        "g"
      ],
      [
        "t",
        "e"
      ],
      [
        "Ġn",
        "e"
      ],
      [
        "u",
        "s"
      ],
      [
        "e",
        "t"
      ],
      [
        "e",
        "u"
      ],
      [
        "Ġ",
        "j"
      ],
      [
        "ou",
        "r"
      ],
      [
        "Ġ",
        "un"
      ],
      [
        "e",
        "d"
      ],
      [
        "o",
        "i"
      ],
      [
        "ĠÃ",
        "ł"
      ],
      [
        "o",
        "t"
      ],
      [
        "'",
        "t"
      ],
      [
        "Ġl",
        "e"
      ],
      [
        "Ġ",
        "re"
      ],
      [
        "r",
        "i"
      ],
      [
        "Ġ",
        "o"
      ],
      [
        "Ġm",
        "e"
      ],
      [
        "Ġl",
        "a"
      ],
      [
        "ai",
        "t"
      ],
      [
        "Ġs",
        "u"
      ],
      [
        "Ġ",
        "?"
      ],
      [
        "Ġ",
        "C"
      ],
      [
        "s",
        "e"
      ],
      [
        "an",
        "t"
      ],
      [
        "r",
        "o"
      ],
      [
        "i",
        "l"
      ],
      [
        "Ã",
        "¨"
      ],
      [
        "Ġ",
        "W"
      ],
      [
        "ĠI",
        "l"
      ],
      [
        "c",
        "e"
      ],
      [
        "ll",
        "e"
      ],
      [
        "Ġ",
        "en"
      ],
      [
        "Ġ",
        "in"
      ],
      [
        "i",
        "m"
      ],
      [
        "i",
        "d"
      ],
      [
        "Ġb",
        "e"
      ],
      [
        "Ġ",
        "e"
      ],
      [
        "Ġd",
        "o"
      ],
      [
        "Ġh",
        "a"
      ],
      [
        "Ġ",
        "is"
      ],
      [
        "a",
        "y"
      ],
      [
        "Ġ",
        "est"
      ],
      [
        "o",
        "w"
      ],
      [
        "i",
        "on"
      ],
      [
        "Ġv",
        "ous"
      ],
      [
        "Ġt",
        "r"
      ],
      [
        "Ġ",
        "H"
      ],
      [
        "a",
        "u"
      ],
      [
        "Ã©",
        "t"
      ],
      [
        "Ġc",
        "e"
      ],
      [
        "Ġc",
        "h"
      ],
      [
        "Ġ",
        "L"
      ],
      [
        "c",
        "h"
      ],
      [
        "ou",
        "t"
      ],
      [
        "m",
        "ent"
      ],
      [
        "Ġ",
        "he"
      ],
      [
        "Ġ",
        "N"
      ],
      [
        "Ġo",
        "f"
      ],
      [
        "Ġ",
        "r"
      ],
      [
        "Ġ",
        "E"
      ],
      [
        "Ġa",
        "n"
      ],
      [
        "m",
        "e"
      ],
      [
        "on",
        "t"
      ],
      [
        "a",
        "l"
      ],
      [
        "Ġt",
        "e"
      ],
      [
        "Ġ",
        "S"
      ],
      [
        "ai",
        "n"
      ],
      [
        "i",
        "c"
      ],
      [
        "'",
        "s"
      ],
      [
        "i",
        "e"
      ],
      [
        "Ġ",
        "M"
      ],
      [
        "Ġp",
        "l"
      ],
      [
        "Ġth",
        "at"
      ],
      [
        "Ġs",
        "e"
      ],
      [
        "Ġ",
        "Y"
      ],
      [
        "t",
        "u"
      ],
      [
        "l",
        "d"
      ],
      [
        "k",
        "e"
      ],
      [
        "Ġp",
        "ar"
      ],
      [
        "h",
        "at"
      ],
      [
        "Ġl",
        "i"
      ],
      [
        "p",
        "p"
      ],
      [
        "v",
        "er"
      ],
      [
        "eu",
        "x"
      ],
      [
        "Ġ",
        "D"
      ],
      [
        "i",
        "r"
      ],
      [
        "Ġ",
        "A"
      ],
      [
        "ĠT",
        "he"
      ],
      [
        "on",
        "s"
      ],
      [
        "Ġc",
        "om"
      ],
      [
        "ĠY",
        "ou"
      ],
      [
        "o",
        "s"
      ],
      [
        "ª",
        "t"
      ],
      [
        "Ġ",
        "P"
      ],
      [
        "Ġf",
        "or"
      ],
      [
        "re",
        "n"
      ],
      [
        "Ġp",
        "our"
      ],
      [
        "Ġa",
        "u"
      ],
      [
        "ai",
        "re"
      ],
      [
        "Ġun",
        "e"
      ],
      [
        "Ġ",
        "on"
      ],
      [
        "a",
        "v"
      ],
      [
        "o",
        "o"
      ],
      [
        "an",
        "d"
      ],
      [
        "Ġw",
        "as"
      ],
      [
        "ĠH",
        "e"
      ],
      [
        "Ġd",
        "on"
      ],
      [
        "g",
        "h"
      ],
      [
        "en",
        "d"
      ],
      [
        "a",
        "g"
      ],
      [
        "Ġ",
        "it"
      ],
      [
        "a",
        "d"
      ],
      [
        "Ġj",
        "e"
      ],
      [
        "Ġ",
        "V"
      ],
      [
        "v",
        "ous"
      ],
      [
        "re",
        "s"
      ],
      [
        "Ġ",
        "k"
      ],
      [
        "Ġ",
        "Ã©t"
      ],
      [
        "Ġw",
        "e"
      ],
      [
        "t",
        "er"
      ],
      [
        "Ġa",
        "s"
      ],
      [
        "Ġha",
        "ve"
      ],
      [
        "a",
        "m"
      ],
      [
        "Ġsu",
        "is"
      ],
      [
        "i",
        "ll"
      ],
      [
        "n",
        "e"
      ],
      [
        "a",
        "c"
      ],
      [
        "an",
        "s"
      ],
      [
        "u",
        "r"
      ],
      [
        "i",
        "en"
      ],
      [
        "â",
        "Ģ"
      ],
      [
        "Ã©",
        "e"
      ],
      [
        "b",
        "le"
      ],
      [
        "ou",
        "ld"
      ],
      [
        "Ġp",
        "r"
      ],
      [
        "oi",
        "r"
      ],
      [
        "Ġn",
        "ot"
      ],
      [
        "Ġl",
        "es"
      ],
      [
        "Ġyou",
        "r"
      ],
      [
        "qu",
        "e"
      ],
      [
        "Ġa",
        "ll"
      ],
      [
        "'",
        "m"
      ],
      [
        "u",
        "t"
      ],
      [
        "Ġth",
        "is"
      ],
      [
        "Ġt",
        "u"
      ],
      [
        "Ġd",
        "Ã©"
      ],
      [
        "u",
        "e"
      ],
      [
        "Ġf",
        "aire"
      ],
      [
        "Ġs",
        "t"
      ],
      [
        "Ġg",
        "o"
      ],
      [
        "Ã¨",
        "re"
      ],
      [
        "Ġp",
        "ro"
      ],
      [
        "gh",
        "t"
      ],
      [
        "ĠN",
        "ous"
      ],
      [
        "ĠW",
        "e"
      ],
      [
        "Ġc",
        "an"
      ],
      [
        "Ġs",
        "o"
      ],
      [
        "Ġw",
        "ant"
      ],
      [
        "âĢ",
        "¯"
      ],
      [
        "Ġa",
        "v"
      ],
      [
        "a",
        "ll"
      ],
      [
        "Ġ",
        "Q"
      ],
      [
        "u",
        "i"
      ],
      [
        "Ġa",
        "t"
      ],
      [
        "'",
        "re"
      ],
      [
        "er",
        "s"
      ],
      [
        "Ġm",
        "y"
      ],
      [
        "an",
        "g"
      ],
      [
        "o",
        "re"
      ],
      [
        "u",
        "re"
      ],
      [
        "n",
        "ow"
      ],
      [
        "m",
        "p"
      ],
      [
        "Â",
        "ł"
      ],
      [
        "Ġa",
        "ve"
      ],
      [
        "Ġm",
        "on"
      ],
      [
        "ĠT",
        "u"
      ],
      [
        "ĠV",
        "ous"
      ],
      [
        "Ġk",
        "now"
      ],
      [
        "ar",
        "d"
      ],
      [
        "Ġd",
        "i"
      ],
      [
        "Ġd",
        "es"
      ],
      [
        "Ġd",
        "id"
      ],
      [
        "ĠÃ",
        "ªt"
      ],
      [
        "it",
        "h"
      ],
      [
        "ĠE",
        "lle"
      ],
      [
        "Ġs",
        "om"
      ],
      [
        "en",
        "s"
      ],
      [
        "Ġd",
        "ans"
      ],
      [
        "Ġc",
        "on"
      ],
      [
        "i",
        "g"
      ],
      [
        "Ġpl",
        "us"
      ],
      [
        "Ġn",
        "ous"
      ],
      [
        "Ġw",
        "ith"
      ],
      [
        "o",
        "l"
      ],
      [
        "ĠI",
        "t"
      ],
      [
        "Ġ",
        "!"
      ],
      [
        "Ġli",
        "ke"
      ],
      [
        "or",
        "t"
      ],
      [
        "l",
        "y"
      ],
      [
        "f",
        "f"
      ],
      [
        "Ġa",
        "re"
      ],
      [
        "e",
        "z"
      ],
      [
        "Ã¨",
        "s"
      ],
      [
        "ĠS",
        "he"
      ],
      [
        "es",
        "s"
      ],
      [
        "in",
        "k"
      ],
      [
        "§",
        "a"
      ],
      [
        "Ġf",
        "r"
      ],
      [
        "Ã©",
        "c"
      ],
      [
        "Ġf",
        "ait"
      ],
      [
        "p",
        "e"
      ],
      [
        "Ġs",
        "h"
      ],
      [
        "s",
        "t"
      ],
      [
        "us",
        "t"
      ],
      [
        "ĠÃ",
        "§a"
      ],
      [
        "Ã",
        "ª"
      ],
      [
        "h",
        "ing"
      ],
      [
        "o",
        "se"
      ],
      [
        "Ġe",
        "x"
      ],
      [
        "o",
        "in"
      ],
      [
        "Ġ",
        "ri"
      ],
      [
        "ĠM",
        "ar"
      ],
      [
        "r",
        "ai"
      ],
      [
        "a",
        "ve"
      ],
      [
        "Ġt",
        "out"
      ],
      [
        "Ġsu",
        "r"
      ],
      [
        "Ġm",
        "a"
      ],
      [
        "Ã©",
        "s"
      ],
      [
        "Ġv",
        "eux"
      ],
      [
        "Ġa",
        "r"
      ],
      [
        "Ġa",
        "b"
      ],
      [
        "i",
        "er"
      ],
      [
        "Ġd",
        "u"
      ],
      [
        "u",
        "p"
      ],
      [
        "oo",
        "k"
      ],
      [
        "Ã",
        "ªt"
      ],
      [
        "h",
        "er"
      ],
      [
        "Ġde",
        "v"
      ],
      [
        "Ġw",
        "hat"
      ],
      [
        "eu",
        "r"
      ],
      [
        "Ġt",
        "a"
      ],
      [
        "Ġave",
        "c"
      ],
      [
        "Ġw",
        "h"
      ],
      [
        "d",
        "e"
      ],
      [
        "Ġqu",
        "i"
      ],
      [
        "on",
        "e"
      ],
      [
        "on",
        "g"
      ],
      [
        "ou",
        "v"
      ],
      [
        "Ġth",
        "ink"
      ],
      [
        "c",
        "t"
      ],
      [
        "l",
        "a"
      ],
      [
        "a",
        "p"
      ],
      [
        "Ġa",
        "m"
      ],
      [
        "Ġ",
        "O"
      ],
      [
        "ĠW",
        "hat"
      ],
      [
        "et",
        "te"
      ],
      [
        "ĠW",
        "h"
      ],
      [
        "ic",
        "i"
      ],
      [
        "Ġh",
        "is"
      ],
      [
        "o",
        "is"
      ],
      [
        "at",
        "ion"
      ],
      [
        "Ġque",
        "l"
      ],
      [
        "im",
        "e"
      ],
      [
        "u",
        "l"
      ],
      [
        "ĠC",
        "e"
      ],
      [
        "d",
        "re"
      ],
      [
        "i",
        "f"
      ],
      [
        "Ġa",
        "l"
      ],
      [
        "Ġan",
        "y"
      ],
      [
        "b",
        "l"
      ],
      [
        "c",
        "i"
      ],
      [
        "Ġs",
        "a"
      ],
      [
        "Ġh",
        "im"
      ],
      [
        "en",
        "se"
      ],
      [
        "ĠD",
        "o"
      ],
      [
        "ĠT",
        "h"
      ],
      [
        "Ġd",
        "is"
      ],
      [
        "Ġv",
        "er"
      ],
      [
        "im",
        "p"
      ],
      [
        "ĠMar",
        "y"
      ],
      [
        "Ã",
        "ł"
      ],
      [
        "Ġs",
        "i"
      ],
      [
        "on",
        "ne"
      ],
      [
        "mp",
        "s"
      ],
      [
        "Ġcom",
        "p"
      ],
      [
        "Ġpar",
        "t"
      ],
      [
        "'",
        "ll"
      ],
      [
        "ĠL",
        "e"
      ],
      [
        "c",
        "he"
      ],
      [
        "ag",
        "e"
      ],
      [
        "Ġw",
        "or"
      ],
      [
        "t",
        "re"
      ],
      [
        "m",
        "es"
      ],
      [
        "Ġ",
        "et"
      ],
      [
        "Ġs",
        "ont"
      ],
      [
        "Ġp",
        "eu"
      ],
      [
        "Ġ",
        "us"
      ],
      [
        "Ġr",
        "Ã©"
      ],
      [
        "te",
        "d"
      ],
      [
        "a",
        "re"
      ],
      [
        "Ġf",
        "e"
      ],
      [
        "'",
        "ve"
      ],
      [
        "it",
        "e"
      ],
      [
        "u",
        "x"
      ],
      [
        "ot",
        "re"
      ],
      [
        "at",
        "e"
      ],
      [
        "ĠThe",
        "y"
      ],
      [
        "ĠC",
        "om"
      ],
      [
        "Ġs",
        "on"
      ],
      [
        "Ġan",
        "d"
      ],
      [
        "ou",
        "ve"
      ],
      [
        "oo",
        "d"
      ],
      [
        "Ġre",
        "n"
      ],
      [
        "our",
        "s"
      ],
      [
        "ĠQ",
        "ue"
      ],
      [
        "o",
        "y"
      ],
      [
        "u",
        "is"
      ],
      [
        "Ġd",
        "it"
      ],
      [
        "o",
        "p"
      ],
      [
        "ou",
        "p"
      ],
      [
        "Ġab",
        "out"
      ],
      [
        "Ġtr",
        "Ã¨s"
      ],
      [
        "i",
        "lle"
      ],
      [
        "Ġt",
        "ime"
      ],
      [
        "Ġg",
        "et"
      ],
      [
        "c",
        "c"
      ],
      [
        "Ġa",
        "pp"
      ],
      [
        "r",
        "ais"
      ],
      [
        "ĠN",
        "e"
      ],
      [
        "s",
        "i"
      ],
      [
        "Ġm",
        "ais"
      ],
      [
        "Ġp",
        "ense"
      ],
      [
        "Ġv",
        "ou"
      ],
      [
        "os",
        "t"
      ],
      [
        "Ġhe",
        "re"
      ],
      [
        "t",
        "en"
      ],
      [
        "Ġver",
        "y"
      ],
      [
        "Ġm",
        "an"
      ],
      [
        "ĠÃªt",
        "re"
      ],
      [
        "id",
        "e"
      ],
      [
        "ĠP",
        "our"
      ],
      [
        "Ġm",
        "oi"
      ],
      [
        "Ġte",
        "mps"
      ],
      [
        "qu",
        "oi"
      ],
      [
        "Ġde",
        "m"
      ],
      [
        "Ġs",
        "er"
      ],
      [
        "ren",
        "t"
      ],
      [
        "Ġ",
        "B"
      ],
      [
        "in",
        "d"
      ],
      [
        "in",
        "e"
      ],
      [
        "i",
        "ve"
      ],
      [
        "Ġdid",
        "n"
      ],
      [
        "ĠL",
        "a"
      ],
      [
        "Ġt",
        "ou"
      ],
      [
        "all",
        "y"
      ],
      [
        "Ġ",
        "out"
      ],
      [
        "Ã",
        "»"
      ],
      [
        "Ġse",
        "e"
      ],
      [
        "Ġv",
        "rai"
      ],
      [
        "ĠTh",
        "is"
      ],
      [
        "j",
        "e"
      ],
      [
        "Ġ",
        "F"
      ],
      [
        "ll",
        "es"
      ],
      [
        "ĠT",
        "hat"
      ],
      [
        "m",
        "er"
      ],
      [
        "ĠÃ©t",
        "Ã©"
      ],
      [
        "Ġl",
        "ui"
      ],
      [
        "Ġv",
        "otre"
      ],
      [
        "Ã",
        "´"
      ],
      [
        "a",
        "pp"
      ],
      [
        "Ġ",
        "up"
      ],
      [
        "Ġp",
        "eux"
      ],
      [
        "ver",
        "y"
      ],
      [
        "ĠÃ©t",
        "ait"
      ],
      [
        "ĠÃªt",
        "es"
      ],
      [
        "r",
        "y"
      ],
      [
        "ĠH",
        "ow"
      ],
      [
        "Ġha",
        "d"
      ],
      [
        "Ġs",
        "ais"
      ],
      [
        "Ġg",
        "r"
      ],
      [
        "Ġne",
        "ed"
      ],
      [
        "e",
        "l"
      ],
      [
        "Ġwe",
        "re"
      ],
      [
        "Ġbe",
        "au"
      ],
      [
        "Ġj",
        "am"
      ],
      [
        "Ġch",
        "ose"
      ],
      [
        "Ġh",
        "er"
      ],
      [
        "t",
        "Ã©"
      ],
      [
        "Ġc",
        "l"
      ],
      [
        "Ġha",
        "pp"
      ],
      [
        "Ġ",
        "Ã©"
      ],
      [
        "as",
        "e"
      ],
      [
        "ĠL",
        "es"
      ],
      [
        "Ġh",
        "as"
      ],
      [
        "Ġc",
        "he"
      ],
      [
        "us",
        "e"
      ],
      [
        "Ġ",
        "es"
      ],
      [
        "d",
        "ay"
      ],
      [
        "Ġc",
        "ette"
      ],
      [
        "Ã",
        "§"
      ],
      [
        "Ġre",
        "s"
      ],
      [
        "Ġon",
        "e"
      ],
      [
        "Ġ",
        "ici"
      ],
      [
        "p",
        "r"
      ],
      [
        "ĠD",
        "on"
      ],
      [
        "Ġt",
        "ro"
      ],
      [
        "n",
        "er"
      ],
      [
        "ie",
        "z"
      ],
      [
        "av",
        "ai"
      ],
      [
        "ion",
        "s"
      ],
      [
        "al",
        "k"
      ],
      [
        "Ã",
        "¹"
      ],
      [
        "Ġw",
        "ill"
      ],
      [
        "Ġjam",
        "ais"
      ],
      [
        "Ġgo",
        "ing"
      ],
      [
        "Ã",
        "®"
      ],
      [
        "i",
        "ght"
      ],
      [
        "an",
        "ce"
      ],
      [
        "Ġdi",
        "re"
      ],
      [
        "Ġtr",
        "avai"
      ],
      [
        "u",
        "it"
      ],
      [
        "Ġa",
        "g"
      ],
      [
        "a",
        "ble"
      ],
      [
        "Ġn",
        "o"
      ],
      [
        "om",
        "e"
      ],
      [
        "Ġpar",
        "l"
      ],
      [
        "Ġsh",
        "ould"
      ],
      [
        "Ġ",
        "ent"
      ],
      [
        "Ġt",
        "on"
      ],
      [
        "Ġj",
        "ust"
      ],
      [
        "Ġm",
        "ar"
      ],
      [
        "ou",
        "n"
      ],
      [
        "v",
        "en"
      ],
      [
        "ĠIl",
        "s"
      ],
      [
        "Ġce",
        "la"
      ],
      [
        "Ġb",
        "ien"
      ],
      [
        "he",
        "re"
      ],
      [
        "'",
        "d"
      ],
      [
        "Ġvrai",
        "ment"
      ],
      [
        "Ġl",
        "ong"
      ],
      [
        "Ġp",
        "ens"
      ],
      [
        "i",
        "Ã¨re"
      ],
      [
        "as",
        "t"
      ],
      [
        "ĠA",
        "re"
      ],
      [
        "as",
        "s"
      ],
      [
        "a",
        "k"
      ],
      [
        "un",
        "e"
      ],
      [
        "Ġ",
        "il"
      ],
      [
        "l",
        "p"
      ],
      [
        "i",
        "re"
      ],
      [
        "ĠPour",
        "quoi"
      ],
      [
        "Ġl",
        "ook"
      ],
      [
        "Ġg",
        "ood"
      ],
      [
        "i",
        "ce"
      ],
      [
        "Ġto",
        "i"
      ],
      [
        "ot",
        "her"
      ],
      [
        "Ġc",
        "ont"
      ],
      [
        "res",
        "s"
      ],
      [
        "ai",
        "r"
      ],
      [
        "ĠQ",
        "u"
      ],
      [
        "Ġhe",
        "lp"
      ],
      [
        "r",
        "it"
      ],
      [
        "Ġtr",
        "ain"
      ],
      [
        "ay",
        "s"
      ],
      [
        "Ġp",
        "ers"
      ],
      [
        "or",
        "te"
      ],
      [
        "or",
        "s"
      ],
      [
        "Ġc",
        "o"
      ],
      [
        "m",
        "b"
      ],
      [
        "Ġto",
        "o"
      ],
      [
        "Ġwor",
        "k"
      ],
      [
        "Ġ",
        "imp"
      ],
      [
        "m",
        "oi"
      ],
      [
        "Ġat",
        "t"
      ],
      [
        "t",
        "hing"
      ],
      [
        "ai",
        "d"
      ],
      [
        "Ġb",
        "es"
      ],
      [
        "Ãª",
        "te"
      ],
      [
        "ad",
        "e"
      ],
      [
        "Ġquel",
        "que"
      ],
      [
        "Ġs",
        "eu"
      ],
      [
        "is",
        "t"
      ],
      [
        "Ġc",
        "a"
      ],
      [
        "Ġc",
        "ar"
      ],
      [
        "Ġbes",
        "oin"
      ],
      [
        "c",
        "oup"
      ],
      [
        "ig",
        "n"
      ],
      [
        "Ġw",
        "ould"
      ],
      [
        "Ġc",
        "r"
      ],
      [
        "Ġp",
        "er"
      ],
      [
        "ou",
        "ght"
      ],
      [
        "Ġv",
        "i"
      ],
      [
        "ang",
        "er"
      ],
      [
        "Ġs",
        "av"
      ],
      [
        "ar",
        "g"
      ],
      [
        "Ġthe",
        "re"
      ],
      [
        "Ġpas",
        "s"
      ],
      [
        "ch",
        "er"
      ],
      [
        "Ġc",
        "ould"
      ],
      [
        "Ġdi",
        "ff"
      ],
      [
        "ĠM",
        "y"
      ],
      [
        "Ġa",
        "d"
      ],
      [
        "d",
        "y"
      ],
      [
        "Ġvou",
        "l"
      ],
      [
        "Ġre",
        "ally"
      ],
      [
        "c",
        "k"
      ],
      [
        "Ġfr",
        "om"
      ],
      [
        "au",
        "t"
      ],
      [
        "ac",
        "k"
      ],
      [
        "e",
        "lle"
      ],
      [
        "e",
        "p"
      ],
      [
        "Ġte",
        "ll"
      ],
      [
        "v",
        "re"
      ],
      [
        "ĠWh",
        "y"
      ],
      [
        "Ġdem",
        "and"
      ],
      [
        "or",
        "d"
      ],
      [
        "Ġ",
        "R"
      ],
      [
        "l",
        "f"
      ],
      [
        "Ġm",
        "ain"
      ],
      [
        "t",
        "es"
      ],
      [
        "Ã©",
        "es"
      ],
      [
        "Ġl",
        "o"
      ],
      [
        "Ġp",
        "le"
      ],
      [
        "Ġe",
        "very"
      ],
      [
        "Ġb",
        "r"
      ],
      [
        "Ġbeau",
        "coup"
      ],
      [
        "Ġb",
        "y"
      ],
      [
        "Ġsom",
        "e"
      ],
      [
        "Ã©",
        "l"
      ],
      [
        "b",
        "re"
      ],
      [
        "ĠE",
        "st"
      ],
      [
        "Ġ",
        "ro"
      ],
      [
        "Ġt",
        "alk"
      ],
      [
        "is",
        "e"
      ],
      [
        "Ġar",
        "ri"
      ],
      [
        "Ġav",
        "ons"
      ],
      [
        "Ġave",
        "z"
      ],
      [
        "se",
        "z"
      ],
      [
        "le",
        "ment"
      ],
      [
        "Ġf",
        "in"
      ],
      [
        "Ġt",
        "ous"
      ],
      [
        "Ġsom",
        "mes"
      ],
      [
        "Ġp",
        "ren"
      ],
      [
        "Ġdo",
        "es"
      ],
      [
        "on",
        "n"
      ],
      [
        "or",
        "m"
      ],
      [
        "Ãªt",
        "re"
      ],
      [
        "u",
        "d"
      ],
      [
        "Ġbe",
        "en"
      ],
      [
        "Ġall",
        "er"
      ],
      [
        "ri",
        "end"
      ],
      [
        "Ġv",
        "o"
      ],
      [
        "Ġs",
        "tu"
      ],
      [
        "Ġparl",
        "er"
      ],
      [
        "Ġp",
        "e"
      ],
      [
        "Ġp",
        "re"
      ],
      [
        "Ġ",
        "ont"
      ],
      [
        "Ġse",
        "m"
      ],
      [
        "w",
        "n"
      ],
      [
        "o",
        "b"
      ],
      [
        "Ġf",
        "er"
      ],
      [
        "ĠCom",
        "ment"
      ],
      [
        "r",
        "a"
      ],
      [
        "d",
        "s"
      ],
      [
        "Ġg",
        "ot"
      ],
      [
        "Ġof",
        "f"
      ],
      [
        "Ġj",
        "us"
      ],
      [
        "Ġcom",
        "e"
      ],
      [
        "ar",
        "t"
      ],
      [
        "Ġm",
        "ore"
      ],
      [
        "Ġne",
        "ver"
      ],
      [
        "Ġb",
        "us"
      ],
      [
        "Ġm",
        "al"
      ],
      [
        "Ġb",
        "l"
      ],
      [
        "Ġn",
        "ow"
      ],
      [
        "Ãª",
        "me"
      ],
      [
        "Ġpl",
        "a"
      ],
      [
        "Ġth",
        "an"
      ],
      [
        "ĠÃ",
        "ĩ"
      ],
      [
        "ĠÃĩ",
        "a"
      ],
      [
        "Ġpeu",
        "t"
      ],
      [
        "ang",
        "e"
      ],
      [
        "Ġl",
        "Ãł"
      ],
      [
        "ĠThe",
        "re"
      ],
      [
        "ĠC",
        "an"
      ],
      [
        "Ġsom",
        "et"
      ],
      [
        "Ġgr",
        "and"
      ],
      [
        "ais",
        "s"
      ],
      [
        "Ġb",
        "ut"
      ],
      [
        "re",
        "e"
      ],
      [
        "Ġmais",
        "on"
      ],
      [
        "Ġl",
        "et"
      ],
      [
        "Ġhe",
        "ure"
      ],
      [
        "Ġen",
        "c"
      ],
      [
        "on",
        "d"
      ],
      [
        "ai",
        "me"
      ],
      [
        "Ġcom",
        "m"
      ],
      [
        "Ã©t",
        "ait"
      ],
      [
        "Ġqu",
        "est"
      ],
      [
        "ĠO",
        "n"
      ],
      [
        "ĠI",
        "s"
      ],
      [
        "ve",
        "z"
      ],
      [
        "Ġ",
        "G"
      ],
      [
        "is",
        "s"
      ],
      [
        "Ġtro",
        "p"
      ],
      [
        "is",
        "h"
      ],
      [
        "j",
        "ours"
      ],
      [
        "Ġtou",
        "jours"
      ],
      [
        "Ġp",
        "os"
      ],
      [
        "i",
        "ent"
      ],
      [
        "a",
        "b"
      ],
      [
        "Ġri",
        "en"
      ],
      [
        "Ġm",
        "at"
      ],
      [
        "i",
        "que"
      ],
      [
        "it",
        "Ã©"
      ],
      [
        "ant",
        "s"
      ],
      [
        "Ġ",
        "if"
      ],
      [
        "u",
        "m"
      ],
      [
        "Ġm",
        "u"
      ],
      [
        "Ġv",
        "a"
      ],
      [
        "Ġv",
        "en"
      ],
      [
        "Ġj",
        "our"
      ],
      [
        "Ġ",
        "Ã©c"
      ],
      [
        "Ġde",
        "ux"
      ],
      [
        "Ġv",
        "oir"
      ],
      [
        "Ġh",
        "ome"
      ],
      [
        "Ġ",
        "ou"
      ],
      [
        "Ġpr",
        "Ã©"
      ],
      [
        "Ġn",
        "ouve"
      ],
      [
        "Ġp",
        "ouv"
      ],
      [
        "Ġf",
        "at"
      ],
      [
        "Ġas",
        "k"
      ],
      [
        "oi",
        "re"
      ],
      [
        "Ġm",
        "es"
      ],
      [
        "Ġs",
        "p"
      ],
      [
        "Ġa",
        "i"
      ],
      [
        "r",
        "ait"
      ],
      [
        "Ġsomet",
        "hing"
      ],
      [
        "Ġenc",
        "ore"
      ],
      [
        "il",
        "s"
      ],
      [
        "Ġex",
        "p"
      ],
      [
        "Ġmu",
        "ch"
      ],
      [
        "Ġmon",
        "de"
      ],
      [
        "Ġvo",
        "it"
      ],
      [
        "Ġb",
        "on"
      ],
      [
        "g",
        "e"
      ],
      [
        "o",
        "le"
      ],
      [
        "Ġt",
        "om"
      ],
      [
        "Ġs",
        "pe"
      ],
      [
        "Ġe",
        "at"
      ],
      [
        "r",
        "Ã©"
      ],
      [
        "Ġ",
        "U"
      ],
      [
        "Ġqu",
        "oi"
      ],
      [
        "Ã",
        "¢"
      ],
      [
        "ro",
        "w"
      ],
      [
        "Ġp",
        "ri"
      ],
      [
        "ĠM",
        "on"
      ],
      [
        "Ġl",
        "it"
      ],
      [
        "Ġp",
        "i"
      ],
      [
        "Ã´",
        "t"
      ],
      [
        "Ġs",
        "ay"
      ],
      [
        "Ġen",
        "f"
      ],
      [
        "Ġf",
        "riend"
      ],
      [
        "ĠL",
        "et"
      ],
      [
        "ĠT",
        "out"
      ],
      [
        "er",
        "t"
      ],
      [
        "ien",
        "s"
      ],
      [
        "Ġb",
        "u"
      ],
      [
        "Ġre",
        "t"
      ],
      [
        "Ġre",
        "ad"
      ],
      [
        "Ġta",
        "ke"
      ],
      [
        "Ġv",
        "ais"
      ],
      [
        "Ġhapp",
        "en"
      ],
      [
        "us",
        "si"
      ],
      [
        "Ġri",
        "ght"
      ],
      [
        "oun",
        "d"
      ],
      [
        "Ġre",
        "g"
      ],
      [
        "Ġa",
        "f"
      ],
      [
        "Ġcom",
        "me"
      ],
      [
        "e",
        "y"
      ],
      [
        "j",
        "our"
      ],
      [
        "ain",
        "e"
      ],
      [
        "Ġquel",
        "qu"
      ],
      [
        "n",
        "Ã©"
      ],
      [
        "ĠdÃ©",
        "c"
      ],
      [
        "Ġav",
        "oir"
      ],
      [
        "Ġh",
        "ow"
      ],
      [
        "Ġf",
        "ais"
      ],
      [
        "Ġma",
        "ke"
      ],
      [
        "Ġa",
        "cc"
      ],
      [
        "ĠQue",
        "l"
      ],
      [
        "Ġf",
        "aut"
      ],
      [
        "i",
        "le"
      ],
      [
        "o",
        "dy"
      ],
      [
        "Ã©t",
        "ais"
      ],
      [
        "ic",
        "k"
      ],
      [
        "Ġd",
        "er"
      ],
      [
        "Ġan",
        "s"
      ],
      [
        "Ġsu",
        "pp"
      ],
      [
        "Ġdo",
        "is"
      ],
      [
        "Ġvoit",
        "ure"
      ],
      [
        "Ġso",
        "it"
      ],
      [
        "ĠA",
        "s"
      ],
      [
        "en",
        "ce"
      ],
      [
        "ar",
        "s"
      ],
      [
        "Ġfe",
        "el"
      ],
      [
        "ĠD",
        "id"
      ],
      [
        "i",
        "es"
      ],
      [
        "ĠE",
        "lles"
      ],
      [
        "t",
        "ing"
      ],
      [
        "Ġb",
        "ook"
      ],
      [
        "u",
        "res"
      ],
      [
        "Ġmon",
        "ey"
      ],
      [
        "ai",
        "mer"
      ],
      [
        "se",
        "lf"
      ],
      [
        "Ġcon",
        "n"
      ],
      [
        "Ġth",
        "ought"
      ],
      [
        "Ġp",
        "h"
      ],
      [
        "le",
        "z"
      ],
      [
        "Ġb",
        "ack"
      ],
      [
        "Ġd",
        "r"
      ],
      [
        "ri",
        "ez"
      ],
      [
        "Ġwh",
        "en"
      ],
      [
        "ten",
        "ant"
      ],
      [
        "Ġv",
        "ie"
      ],
      [
        "Ġthe",
        "y"
      ],
      [
        "Ġm",
        "o"
      ],
      [
        "Ġf",
        "ois"
      ],
      [
        "d",
        "u"
      ],
      [
        "Ġb",
        "et"
      ],
      [
        "b",
        "ien"
      ],
      [
        "arg",
        "ent"
      ],
      [
        "ave",
        "z"
      ],
      [
        "Ġp",
        "a"
      ],
      [
        "h",
        "ui"
      ],
      [
        "Ġs",
        "he"
      ],
      [
        "ost",
        "on"
      ],
      [
        "ĠE",
        "n"
      ],
      [
        "ĠB",
        "oston"
      ],
      [
        "Ġtravai",
        "l"
      ],
      [
        "f",
        "e"
      ],
      [
        "ĠrÃ©",
        "p"
      ],
      [
        "Ġm",
        "ont"
      ],
      [
        "oo",
        "l"
      ],
      [
        "Ġsu",
        "re"
      ],
      [
        "Ġ",
        "eu"
      ],
      [
        "aimer",
        "ais"
      ],
      [
        "jour",
        "d"
      ],
      [
        "Ġl",
        "ast"
      ],
      [
        "Ġv",
        "u"
      ],
      [
        "Ġwh",
        "o"
      ],
      [
        "Ġc",
        "ons"
      ],
      [
        "Ġl",
        "ot"
      ],
      [
        "Ġbe",
        "l"
      ],
      [
        "v",
        "es"
      ],
      [
        "Ã®",
        "t"
      ],
      [
        "g",
        "l"
      ],
      [
        "an",
        "te"
      ],
      [
        "ĠO",
        "Ã¹"
      ],
      [
        "Ġin",
        "t"
      ],
      [
        "Ã©",
        "ri"
      ],
      [
        "Ġany",
        "thing"
      ],
      [
        "Ġne",
        "w"
      ],
      [
        "Ġ",
        "or"
      ],
      [
        "Ġp",
        "et"
      ],
      [
        "Ġav",
        "ait"
      ],
      [
        "Ġto",
        "ld"
      ],
      [
        "Ġs",
        "ou"
      ],
      [
        "v",
        "Ã©"
      ],
      [
        "ai",
        "ent"
      ],
      [
        "Ġlo",
        "ve"
      ],
      [
        "Ġa",
        "ussi"
      ],
      [
        "end",
        "re"
      ],
      [
        "il",
        "d"
      ],
      [
        "Ġd",
        "ay"
      ],
      [
        "Ã¨",
        "me"
      ],
      [
        "id",
        "ent"
      ],
      [
        "ri",
        "ed"
      ],
      [
        "p",
        "t"
      ],
      [
        "ouve",
        "z"
      ],
      [
        "Ġth",
        "ing"
      ],
      [
        "re",
        "r"
      ],
      [
        "Ġfr",
        "an"
      ],
      [
        "Ġn",
        "om"
      ],
      [
        "ou",
        "gh"
      ],
      [
        "Ġg",
        "u"
      ],
      [
        "Ġmain",
        "tenant"
      ],
      [
        "ous",
        "e"
      ],
      [
        "p",
        "os"
      ],
      [
        "Ġpro",
        "bl"
      ],
      [
        "Ġun",
        "d"
      ],
      [
        "Ġj",
        "ou"
      ],
      [
        "Ġs",
        "es"
      ],
      [
        "Ġau",
        "t"
      ],
      [
        "Ġag",
        "ain"
      ],
      [
        "Ġs",
        "Ã»"
      ],
      [
        "op",
        "le"
      ],
      [
        "Ġo",
        "Ã¹"
      ],
      [
        "ot",
        "h"
      ],
      [
        "ĠS",
        "i"
      ],
      [
        "a",
        "ch"
      ],
      [
        "Ġpr",
        "is"
      ],
      [
        "Ġdoes",
        "n"
      ],
      [
        "ĠdÃ©",
        "s"
      ],
      [
        "Ã§",
        "ais"
      ],
      [
        "Ġp",
        "u"
      ],
      [
        "Ġv",
        "is"
      ],
      [
        "ĠP",
        "le"
      ],
      [
        "Å",
        "ĵ"
      ],
      [
        "Ġm",
        "in"
      ],
      [
        "i",
        "Ã©"
      ],
      [
        "Ġm",
        "ust"
      ],
      [
        "n",
        "ing"
      ],
      [
        "Ġce",
        "ci"
      ],
      [
        "Ġw",
        "at"
      ],
      [
        "Ġjus",
        "te"
      ],
      [
        "ĠW",
        "here"
      ],
      [
        "Ġc",
        "our"
      ],
      [
        "Ġder",
        "n"
      ],
      [
        "ri",
        "ve"
      ],
      [
        "ĠPle",
        "ase"
      ],
      [
        "Ġfran",
        "Ã§ais"
      ],
      [
        "i",
        "eux"
      ],
      [
        "Ġpers",
        "onne"
      ],
      [
        "Ġm",
        "ade"
      ],
      [
        "ver",
        "s"
      ],
      [
        "Ġseu",
        "l"
      ],
      [
        "ess",
        "ay"
      ],
      [
        "Ġau",
        "jourd"
      ],
      [
        "Ġw",
        "ay"
      ],
      [
        "Ġche",
        "z"
      ],
      [
        "Ġs",
        "ent"
      ],
      [
        "a",
        "me"
      ],
      [
        "Ġo",
        "ld"
      ],
      [
        "Ġm",
        "om"
      ],
      [
        "Ġp",
        "ol"
      ],
      [
        "Ġ",
        "ke"
      ],
      [
        "âĢ",
        "Ļ"
      ],
      [
        "Ġs",
        "aid"
      ],
      [
        "Ġre",
        "c"
      ],
      [
        "es",
        "e"
      ],
      [
        "ie",
        "ve"
      ],
      [
        "ou",
        "ver"
      ],
      [
        "Ġspe",
        "ak"
      ],
      [
        "it",
        "u"
      ],
      [
        "rent",
        "s"
      ],
      [
        "Ġf",
        "am"
      ],
      [
        "ĠI",
        "f"
      ],
      [
        "Ġm",
        "Ãªme"
      ],
      [
        "Ã©l",
        "Ã©"
      ],
      [
        "Ġy",
        "e"
      ],
      [
        "Ġp",
        "orte"
      ],
      [
        "t",
        "le"
      ],
      [
        "Ġv",
        "eu"
      ],
      [
        "Ġpl",
        "an"
      ],
      [
        "Ġre",
        "st"
      ],
      [
        "Ġ",
        "id"
      ],
      [
        "Ġt",
        "en"
      ],
      [
        "Ġt",
        "er"
      ],
      [
        "i",
        "qu"
      ],
      [
        "ĠWh",
        "o"
      ],
      [
        "Ġh",
        "o"
      ],
      [
        "Ġli",
        "vre"
      ],
      [
        "Ġpr",
        "om"
      ],
      [
        "p",
        "h"
      ],
      [
        "c",
        "re"
      ],
      [
        "ĠQ",
        "ui"
      ],
      [
        "Ġst",
        "ill"
      ],
      [
        "a",
        "ke"
      ],
      [
        "Ġpe",
        "ople"
      ],
      [
        "Ġa",
        "c"
      ],
      [
        "n",
        "Ã©e"
      ],
      [
        "Ġc",
        "are"
      ],
      [
        "Ġs",
        "imp"
      ],
      [
        "Ġw",
        "on"
      ],
      [
        "Ġto",
        "day"
      ],
      [
        "ĠdÃ©",
        "j"
      ],
      [
        "Ġpens",
        "ais"
      ],
      [
        "ĠdÃ©j",
        "Ãł"
      ],
      [
        "Ġw",
        "r"
      ],
      [
        "ac",
        "t"
      ],
      [
        "Ġs",
        "ort"
      ],
      [
        "Ġo",
        "cc"
      ],
      [
        "pr",
        "Ã¨s"
      ],
      [
        "Ġreg",
        "ard"
      ],
      [
        "Ġmom",
        "ent"
      ],
      [
        "Ġw",
        "ent"
      ],
      [
        "Ġt",
        "Ã©lÃ©"
      ],
      [
        "e",
        "k"
      ],
      [
        "Ġs",
        "ouv"
      ],
      [
        "Ġc",
        "all"
      ],
      [
        "at",
        "t"
      ],
      [
        "ĠN",
        "o"
      ],
      [
        "w",
        "ays"
      ],
      [
        "or",
        "row"
      ],
      [
        "Ġdo",
        "ing"
      ],
      [
        "Ġhapp",
        "y"
      ],
      [
        "Ġbet",
        "ter"
      ],
      [
        "as",
        "se"
      ],
      [
        "Ġh",
        "ouse"
      ],
      [
        "Ġs",
        "m"
      ],
      [
        "Ġpa",
        "rents"
      ],
      [
        "Ġpren",
        "dre"
      ],
      [
        "Ġm",
        "et"
      ],
      [
        "Ġp",
        "ay"
      ],
      [
        "av",
        "ais"
      ],
      [
        "end",
        "u"
      ],
      [
        "ren",
        "ch"
      ],
      [
        "Ġbel",
        "ieve"
      ],
      [
        "an",
        "c"
      ],
      [
        "Ġch",
        "a"
      ],
      [
        "Ġal",
        "ways"
      ],
      [
        "b",
        "ody"
      ],
      [
        "Ġh",
        "ier"
      ],
      [
        "Ġf",
        "u"
      ],
      [
        "ĠF",
        "rench"
      ],
      [
        "Ġa",
        "che"
      ],
      [
        "Ġquest",
        "ion"
      ],
      [
        "Ġst",
        "ay"
      ],
      [
        "ĠA",
        "vez"
      ],
      [
        "Ġwe",
        "ek"
      ],
      [
        "Ġp",
        "Ã¨re"
      ],
      [
        "Ġon",
        "ly"
      ],
      [
        "Ġm",
        "ieux"
      ],
      [
        "d",
        "i"
      ],
      [
        "m",
        "in"
      ],
      [
        "Ġt",
        "w"
      ],
      [
        "Ġm",
        "Ã©"
      ],
      [
        "ĠP",
        "ers"
      ],
      [
        "Ġas",
        "sez"
      ],
      [
        "Ġn",
        "ight"
      ],
      [
        "Ġb",
        "onne"
      ],
      [
        "Ġc",
        "ro"
      ],
      [
        "Ġin",
        "v"
      ],
      [
        "Ġd",
        "Ã©t"
      ],
      [
        "n",
        "ous"
      ],
      [
        "Ġthe",
        "m"
      ],
      [
        "Ġro",
        "om"
      ],
      [
        "Ġs",
        "oir"
      ],
      [
        "ĠÃ",
        "Ģ"
      ],
      [
        "Ġpl",
        "ay"
      ],
      [
        "ĠPers",
        "onne"
      ],
      [
        "Ġl",
        "aiss"
      ],
      [
        "Ġcomp",
        "ren"
      ],
      [
        "om",
        "me"
      ],
      [
        "Ġtro",
        "is"
      ],
      [
        "Ġj",
        "ob"
      ],
      [
        "au",
        "x"
      ],
      [
        "f",
        "ore"
      ],
      [
        "Ġa",
        "w"
      ],
      [
        "ent",
        "ion"
      ],
      [
        "ac",
        "c"
      ],
      [
        "ĠÃ",
        "Ĭ"
      ],
      [
        "Ġf",
        "l"
      ],
      [
        "t",
        "y"
      ],
      [
        "ĠE",
        "s"
      ],
      [
        "ers",
        "t"
      ],
      [
        "ct",
        "ion"
      ],
      [
        "Ġe",
        "mp"
      ],
      [
        "r",
        "Ãªt"
      ],
      [
        "e",
        "x"
      ],
      [
        "Ġbe",
        "fore"
      ],
      [
        "te",
        "ment"
      ],
      [
        "Ġo",
        "p"
      ],
      [
        "b",
        "e"
      ],
      [
        "f",
        "t"
      ],
      [
        "Ġ",
        "im"
      ],
      [
        "ĠÃĬ",
        "tes"
      ],
      [
        "ch",
        "ool"
      ],
      [
        "Ġh",
        "ard"
      ],
      [
        "Ġprobl",
        "Ã¨me"
      ],
      [
        "ĠH",
        "ave"
      ],
      [
        "Ġo",
        "ver"
      ],
      [
        "re",
        "d"
      ],
      [
        "f",
        "Ã©"
      ],
      [
        "mb",
        "er"
      ],
      [
        "i",
        "z"
      ],
      [
        "Ġtr",
        "y"
      ],
      [
        "Ġdo",
        "wn"
      ],
      [
        "id",
        "er"
      ],
      [
        "Ġqu",
        "and"
      ],
      [
        "Ġdem",
        "ain"
      ],
      [
        "Ġman",
        "y"
      ],
      [
        "Ġdev",
        "rais"
      ],
      [
        "Ġm",
        "anger"
      ],
      [
        "Ġtout",
        "es"
      ],
      [
        "Ġs",
        "ans"
      ],
      [
        "Ġlit",
        "tle"
      ],
      [
        "Ġd",
        "Ã»"
      ],
      [
        "Ġs",
        "chool"
      ],
      [
        "Ġ",
        "our"
      ],
      [
        "Ġg",
        "ive"
      ],
      [
        "Ġch",
        "ild"
      ],
      [
        "Ġis",
        "n"
      ],
      [
        "Ġdis",
        "c"
      ],
      [
        "est",
        "er"
      ],
      [
        "ĠCom",
        "bien"
      ],
      [
        "en",
        "c"
      ],
      [
        "Ġ",
        "Â"
      ],
      [
        "es",
        "p"
      ],
      [
        "ent",
        "s"
      ],
      [
        "us",
        "s"
      ],
      [
        "Ġav",
        "ant"
      ],
      [
        "an",
        "ted"
      ],
      [
        "ble",
        "m"
      ],
      [
        "ĠC",
        "ette"
      ],
      [
        "he",
        "d"
      ],
      [
        "Ġpro",
        "blem"
      ],
      [
        "ĠU",
        "n"
      ],
      [
        "Ġpla",
        "Ã®t"
      ],
      [
        "Ġh",
        "and"
      ],
      [
        "Ġsur",
        "pr"
      ],
      [
        "Ġund",
        "erst"
      ],
      [
        "Ġle",
        "ave"
      ],
      [
        "Ġcon",
        "f"
      ],
      [
        "c",
        "ont"
      ],
      [
        "Ġg",
        "ens"
      ],
      [
        "Ġg",
        "l"
      ],
      [
        "Ġsav",
        "oir"
      ],
      [
        "eur",
        "s"
      ],
      [
        "g",
        "et"
      ],
      [
        "Ġre",
        "m"
      ],
      [
        "ĠE",
        "very"
      ],
      [
        "Ġren",
        "cont"
      ],
      [
        "Ġw",
        "anted"
      ],
      [
        "Ġre",
        "p"
      ],
      [
        "Ġocc",
        "up"
      ],
      [
        "Ġen",
        "v"
      ],
      [
        "Ġm",
        "us"
      ],
      [
        "ro",
        "s"
      ],
      [
        "k",
        "es"
      ],
      [
        "tu",
        "re"
      ],
      [
        "Ġtr",
        "ouv"
      ],
      [
        "oin",
        "t"
      ],
      [
        "ag",
        "er"
      ],
      [
        "v",
        "ing"
      ],
      [
        "Ġs",
        "ens"
      ],
      [
        "o",
        "g"
      ],
      [
        "ur",
        "n"
      ],
      [
        "Ġf",
        "ut"
      ],
      [
        "Ġdo",
        "g"
      ],
      [
        "ire",
        "d"
      ],
      [
        "Ġde",
        "p"
      ],
      [
        "f",
        "ul"
      ],
      [
        "ve",
        "d"
      ],
      [
        "Ãªt",
        "es"
      ],
      [
        "Ġw",
        "here"
      ],
      [
        "ou",
        "te"
      ],
      [
        "Ġa",
        "im"
      ],
      [
        "ĠÃ©t",
        "ud"
      ],
      [
        "re",
        "at"
      ],
      [
        "Ġw",
        "ait"
      ],
      [
        "Ġpart",
        "ir"
      ],
      [
        "Ġn",
        "uit"
      ],
      [
        "Ġwe",
        "ll"
      ],
      [
        "Ġenf",
        "ants"
      ],
      [
        "Ġaf",
        "ter"
      ],
      [
        "ĠD",
        "e"
      ],
      [
        "ester",
        "day"
      ],
      [
        "it",
        "y"
      ],
      [
        "Ġau",
        "x"
      ],
      [
        "Ġle",
        "ft"
      ],
      [
        "le",
        "ep"
      ],
      [
        "Ġen",
        "d"
      ],
      [
        "Ġhe",
        "ures"
      ],
      [
        "Ġr",
        "ais"
      ],
      [
        "Ġe",
        "lle"
      ],
      [
        "ĠM",
        "a"
      ],
      [
        "er",
        "re"
      ],
      [
        "ĠJ",
        "ap"
      ],
      [
        "Ġal",
        "one"
      ],
      [
        "Ġbe",
        "c"
      ],
      [
        "Ġc",
        "es"
      ],
      [
        "Ġunderst",
        "and"
      ],
      [
        "Ġtou",
        "te"
      ],
      [
        "ĠMar",
        "ie"
      ],
      [
        "Ġtom",
        "orrow"
      ],
      [
        "Ġa",
        "prÃ¨s"
      ],
      [
        "Ġtravai",
        "ll"
      ],
      [
        "Ġhappen",
        "ed"
      ],
      [
        "Ġch",
        "ien"
      ],
      [
        "Ġfat",
        "her"
      ],
      [
        "Ġ",
        "essay"
      ],
      [
        "Ġf",
        "ind"
      ],
      [
        "Ġin",
        "te"
      ],
      [
        "ar",
        "rive"
      ],
      [
        "Ġc",
        "oup"
      ],
      [
        "au",
        "tre"
      ],
      [
        "ul",
        "t"
      ],
      [
        "Ġimp",
        "ort"
      ],
      [
        "it",
        "ion"
      ],
      [
        "Ġpet",
        "it"
      ],
      [
        "Ã©c",
        "ole"
      ],
      [
        "Ġcom",
        "ment"
      ],
      [
        "Ġbu",
        "y"
      ],
      [
        "Ġch",
        "os"
      ],
      [
        "x",
        "t"
      ],
      [
        "Ġen",
        "ough"
      ],
      [
        "j",
        "et"
      ],
      [
        "Ġsee",
        "m"
      ],
      [
        "Ġp",
        "ut"
      ],
      [
        "u",
        "te"
      ],
      [
        "Ġs",
        "w"
      ],
      [
        "ĠCe",
        "la"
      ],
      [
        "Ġth",
        "ree"
      ],
      [
        "ĠC",
        "h"
      ],
      [
        "Ġy",
        "esterday"
      ],
      [
        "Ġsimp",
        "lement"
      ],
      [
        "Ġp",
        "res"
      ],
      [
        "ent",
        "e"
      ],
      [
        "si",
        "ble"
      ],
      [
        "Ġas",
        "s"
      ],
      [
        "Ġh",
        "ur"
      ],
      [
        "Ġf",
        "o"
      ],
      [
        "Ġau",
        "c"
      ],
      [
        "av",
        "ant"
      ],
      [
        "Ġme",
        "et"
      ],
      [
        "Ġdon",
        "e"
      ],
      [
        "re",
        "z"
      ],
      [
        "le",
        "ur"
      ],
      [
        "Ġask",
        "ed"
      ],
      [
        "Ġexp",
        "l"
      ],
      [
        "k",
        "ing"
      ],
      [
        "c",
        "le"
      ],
      [
        "p",
        "ar"
      ],
      [
        "Ġl",
        "is"
      ],
      [
        "au",
        "v"
      ],
      [
        "Ġvoul",
        "ais"
      ],
      [
        "Ġb",
        "o"
      ],
      [
        "Ġdr",
        "ink"
      ],
      [
        "ĠsÃ»",
        "r"
      ],
      [
        "a",
        "ce"
      ],
      [
        "Ġt",
        "es"
      ],
      [
        "Ġnot",
        "re"
      ],
      [
        "Ġm",
        "or"
      ],
      [
        "in",
        "t"
      ],
      [
        "Ġpla",
        "ce"
      ],
      [
        "Ġchos",
        "es"
      ],
      [
        "v",
        "ent"
      ],
      [
        "Ġsa",
        "w"
      ],
      [
        "v",
        "is"
      ],
      [
        "ĠWh",
        "en"
      ],
      [
        "Ġcon",
        "d"
      ],
      [
        "m",
        "Ã©"
      ],
      [
        "Ġtw",
        "o"
      ],
      [
        "Ġcon",
        "c"
      ],
      [
        "re",
        "ad"
      ],
      [
        "r",
        "Ã©c"
      ],
      [
        "Ġch",
        "er"
      ],
      [
        "Ġfriend",
        "s"
      ],
      [
        "Ġte",
        "a"
      ],
      [
        "Ġp",
        "ouvez"
      ],
      [
        "Åĵ",
        "ur"
      ],
      [
        "t",
        "h"
      ],
      [
        "Ġm",
        "Ã¨re"
      ],
      [
        "e",
        "au"
      ],
      [
        "Ġdern",
        "iÃ¨re"
      ],
      [
        "Ġint",
        "o"
      ],
      [
        "Ġres",
        "ter"
      ],
      [
        "Ġs",
        "c"
      ],
      [
        "Ġple",
        "ase"
      ],
      [
        "Ġfe",
        "m"
      ],
      [
        "Ġquelqu",
        "es"
      ],
      [
        "ĠdÃ©",
        "p"
      ],
      [
        "ai",
        "l"
      ],
      [
        "ais",
        "se"
      ],
      [
        "Ġpass",
        "Ã©"
      ],
      [
        "Ġo",
        "b"
      ],
      [
        "Ġa",
        "ff"
      ],
      [
        "Ġp",
        "uis"
      ],
      [
        "ĠP",
        "uis"
      ],
      [
        "lle",
        "ment"
      ],
      [
        "Ġ",
        "ide"
      ],
      [
        "o",
        "c"
      ],
      [
        "Ġpour",
        "quoi"
      ],
      [
        "Ġre",
        "f"
      ],
      [
        "Ġe",
        "ver"
      ],
      [
        "Ġ",
        "1"
      ],
      [
        "Ġta",
        "ble"
      ],
      [
        "Ġch",
        "am"
      ],
      [
        "Ġveu",
        "t"
      ],
      [
        "at",
        "s"
      ],
      [
        "Ġpro",
        "f"
      ],
      [
        "te",
        "mps"
      ],
      [
        "Ġevery",
        "thing"
      ],
      [
        "at",
        "ed"
      ],
      [
        "ill",
        "es"
      ],
      [
        "Ġl",
        "un"
      ],
      [
        "or",
        "ry"
      ],
      [
        "Ġven",
        "ir"
      ],
      [
        "ar",
        "y"
      ],
      [
        "Ġv",
        "os"
      ],
      [
        "Ġmat",
        "in"
      ],
      [
        "Ġwh",
        "y"
      ],
      [
        "us",
        "es"
      ],
      [
        "oun",
        "t"
      ],
      [
        "Ġv",
        "ol"
      ],
      [
        "Ġho",
        "pe"
      ],
      [
        "Ġp",
        "oint"
      ],
      [
        "Ġheure",
        "ux"
      ],
      [
        "Ġg",
        "ar"
      ],
      [
        "Ġj",
        "ours"
      ],
      [
        "Ġnouve",
        "au"
      ],
      [
        "end",
        "ant"
      ],
      [
        "Ġr",
        "app"
      ],
      [
        "end",
        "s"
      ],
      [
        "y",
        "ez"
      ],
      [
        "Ġne",
        "xt"
      ],
      [
        "ir",
        "st"
      ],
      [
        "Ġch",
        "ance"
      ],
      [
        "ar",
        "n"
      ],
      [
        "om",
        "p"
      ],
      [
        "ĠA",
        "ll"
      ],
      [
        "Ġph",
        "ot"
      ],
      [
        "Ġid",
        "Ã©e"
      ],
      [
        "Ġc",
        "ert"
      ],
      [
        "Ġl",
        "ate"
      ],
      [
        "aid",
        "er"
      ],
      [
        "Ġm",
        "oin"
      ],
      [
        "Ġb",
        "ou"
      ],
      [
        "an",
        "k"
      ],
      [
        "Ġhe",
        "ar"
      ],
      [
        "ch",
        "Ã©"
      ],
      [
        "et",
        "s"
      ],
      [
        "Ġd",
        "ur"
      ],
      [
        "Ġs",
        "ait"
      ],
      [
        "ĠR",
        "e"
      ],
      [
        "Ġen",
        "se"
      ],
      [
        "Ġg",
        "ir"
      ],
      [
        "Ġbus",
        "y"
      ],
      [
        "Ġc",
        "or"
      ],
      [
        "Ġin",
        "c"
      ],
      [
        "Ġha",
        "b"
      ],
      [
        "Ġren",
        "d"
      ],
      [
        "id",
        "Ã©"
      ],
      [
        "Ã¨",
        "rent"
      ],
      [
        "ĠdÃ©s",
        "ol"
      ],
      [
        "Ġpr",
        "Ãªt"
      ],
      [
        "ici",
        "le"
      ],
      [
        "Ġd",
        "ou"
      ],
      [
        "Ġwr",
        "ong"
      ],
      [
        "Ġf",
        "ac"
      ],
      [
        "Ġp",
        "at"
      ],
      [
        "Ġp",
        "eur"
      ],
      [
        "Ġ",
        "other"
      ],
      [
        "Ġt",
        "Ã´t"
      ],
      [
        "av",
        "oir"
      ],
      [
        "Ġaw",
        "ay"
      ],
      [
        "Ġw",
        "alk"
      ],
      [
        "Ġfor",
        "t"
      ],
      [
        "v",
        "i"
      ],
      [
        "ĠW",
        "ould"
      ],
      [
        "Ġp",
        "o"
      ],
      [
        "r",
        "is"
      ],
      [
        "Ġk",
        "ind"
      ],
      [
        "Ġm",
        "ot"
      ],
      [
        "Ġquest",
        "ions"
      ],
      [
        "au",
        "rais"
      ],
      [
        "Ġcr",
        "oire"
      ],
      [
        "l",
        "Ã©"
      ],
      [
        "esp",
        "Ã¨re"
      ],
      [
        "g",
        "g"
      ],
      [
        "Ġm",
        "auv"
      ],
      [
        "Ġf",
        "un"
      ],
      [
        "Ġde",
        "c"
      ],
      [
        "Ġmauv",
        "ais"
      ],
      [
        "Ġsem",
        "ble"
      ],
      [
        "Ġpro",
        "b"
      ],
      [
        "Ġdo",
        "or"
      ],
      [
        "Ġtr",
        "ouver"
      ],
      [
        "ig",
        "u"
      ],
      [
        "Ġs",
        "leep"
      ],
      [
        "Ġpre",
        "m"
      ],
      [
        "Ġli",
        "ve"
      ],
      [
        "qu",
        "i"
      ],
      [
        "ff",
        "e"
      ],
      [
        "ou",
        "d"
      ],
      [
        "Ġex",
        "c"
      ],
      [
        "Ġvou",
        "lez"
      ],
      [
        "ĠS",
        "t"
      ],
      [
        "Ġcomp",
        "l"
      ],
      [
        "Ġsem",
        "aine"
      ],
      [
        "ĠQu",
        "and"
      ],
      [
        "Ġdiff",
        "icile"
      ],
      [
        "Ġme",
        "ill"
      ],
      [
        "Ġpol",
        "ice"
      ],
      [
        "Ġk",
        "ne"
      ],
      [
        "Ġren",
        "dre"
      ],
      [
        "Ġide",
        "a"
      ],
      [
        "Ġsh",
        "ow"
      ],
      [
        "Ġnot",
        "hing"
      ],
      [
        "ph",
        "one"
      ],
      [
        "Ġre",
        "me"
      ],
      [
        "Ġpr",
        "Ã©s"
      ],
      [
        "Ġseu",
        "le"
      ],
      [
        "Ġf",
        "irst"
      ],
      [
        "Ġv",
        "Ã©"
      ],
      [
        "Ġc",
        "at"
      ],
      [
        "ĠQue",
        "lle"
      ],
      [
        "Ġdemand",
        "Ã©"
      ],
      [
        "Ġr",
        "Ã©s"
      ],
      [
        "Ġcon",
        "se"
      ],
      [
        "Ġl",
        "ors"
      ],
      [
        "Ġc",
        "et"
      ],
      [
        "Ġsurpr",
        "is"
      ],
      [
        "Ġwas",
        "n"
      ],
      [
        "Ã§",
        "on"
      ],
      [
        "Ġv",
        "oy"
      ],
      [
        "ut",
        "es"
      ],
      [
        "Ġpar",
        "le"
      ],
      [
        "Ġc",
        "ou"
      ],
      [
        "at",
        "her"
      ],
      [
        "Ġn",
        "on"
      ],
      [
        "ang",
        "Ã©"
      ],
      [
        "Ġa",
        "ider"
      ],
      [
        "Ġans",
        "w"
      ],
      [
        "i",
        "gh"
      ],
      [
        "est",
        "e"
      ],
      [
        "Ġrais",
        "on"
      ],
      [
        "Ġent",
        "endu"
      ],
      [
        "ui",
        "re"
      ],
      [
        "bl",
        "es"
      ],
      [
        "ĠÃ",
        "ī"
      ],
      [
        "ro",
        "it"
      ],
      [
        "Ġl",
        "u"
      ],
      [
        "Ġf",
        "ille"
      ],
      [
        "pe",
        "ct"
      ],
      [
        "je",
        "un"
      ],
      [
        "g",
        "er"
      ],
      [
        "ch",
        "es"
      ],
      [
        "Ġs",
        "orry"
      ],
      [
        "e",
        "lles"
      ],
      [
        "l",
        "es"
      ],
      [
        "ĠrÃ©p",
        "on"
      ],
      [
        "Ġm",
        "ay"
      ],
      [
        "Ġau",
        "tre"
      ],
      [
        "Ġg",
        "ard"
      ],
      [
        "Ġimport",
        "ant"
      ],
      [
        "Ġtr",
        "a"
      ],
      [
        "Ġca",
        "me"
      ],
      [
        "ic",
        "t"
      ],
      [
        "Ġfat",
        "igu"
      ],
      [
        "Ġcham",
        "bre"
      ],
      [
        "Ġreme",
        "mber"
      ],
      [
        "Ġsouv",
        "ent"
      ],
      [
        "Ġt",
        "urn"
      ],
      [
        "Ġdep",
        "uis"
      ],
      [
        "Ġal",
        "read"
      ],
      [
        "Ġalread",
        "y"
      ],
      [
        "Ġe",
        "ar"
      ],
      [
        "a",
        "le"
      ],
      [
        "Ġg",
        "ave"
      ],
      [
        "ac",
        "he"
      ],
      [
        "Ġsav",
        "ais"
      ],
      [
        "Ġpi",
        "Ã¨"
      ],
      [
        "Ġye",
        "ars"
      ],
      [
        "ĠÂ",
        "«"
      ],
      [
        "Ġb",
        "ed"
      ],
      [
        "Ġe",
        "ven"
      ],
      [
        "im",
        "es"
      ],
      [
        "Ġbe",
        "ing"
      ],
      [
        "Ġm",
        "ort"
      ],
      [
        "Ġb",
        "ad"
      ],
      [
        "Ġtom",
        "b"
      ],
      [
        "Ġthing",
        "s"
      ],
      [
        "Ġy",
        "et"
      ],
      [
        "Ġl",
        "ang"
      ],
      [
        "Ġke",
        "ep"
      ],
      [
        "Ġkne",
        "w"
      ],
      [
        "Ġf",
        "ai"
      ],
      [
        "Ġb",
        "ig"
      ],
      [
        "Ġmin",
        "utes"
      ],
      [
        "Ġtoo",
        "k"
      ],
      [
        "Ġp",
        "ain"
      ],
      [
        "Ġany",
        "one"
      ],
      [
        "Ġcould",
        "n"
      ],
      [
        "is",
        "ter"
      ],
      [
        "m",
        "ble"
      ],
      [
        "Ġc",
        "ap"
      ],
      [
        "Ġm",
        "other"
      ],
      [
        "Ġus",
        "ed"
      ],
      [
        "Ġso",
        "on"
      ],
      [
        "Ġan",
        "n"
      ],
      [
        "Ġpro",
        "pos"
      ],
      [
        "Ġli",
        "fe"
      ],
      [
        "Ġlook",
        "ing"
      ],
      [
        "Ġmor",
        "ning"
      ],
      [
        "Ġin",
        "tÃ©"
      ],
      [
        "Ġp",
        "endant"
      ],
      [
        "Ġqu",
        "it"
      ],
      [
        "Ġn",
        "ame"
      ],
      [
        "Ġm",
        "ind"
      ],
      [
        "Ġam",
        "is"
      ],
      [
        "or",
        "y"
      ],
      [
        "Ġfem",
        "me"
      ],
      [
        "Ġwith",
        "out"
      ],
      [
        "in",
        "s"
      ],
      [
        "Ġt",
        "ired"
      ],
      [
        "Ġr",
        "ain"
      ],
      [
        "ri",
        "ons"
      ],
      [
        "Ġh",
        "omme"
      ],
      [
        "u",
        "ter"
      ],
      [
        "Ġc",
        "le"
      ],
      [
        "er",
        "ai"
      ],
      [
        "ĠY",
        "our"
      ],
      [
        "Ġpri",
        "e"
      ],
      [
        "Ġt",
        "ard"
      ],
      [
        "Ġlong",
        "temps"
      ],
      [
        "Ġacc",
        "ident"
      ],
      [
        "Ġam",
        "i"
      ],
      [
        "Ġop",
        "en"
      ],
      [
        "or",
        "ter"
      ],
      [
        "Ġque",
        "lle"
      ],
      [
        "Ġb",
        "est"
      ],
      [
        "Ġinte",
        "res"
      ],
      [
        "Ġpro",
        "ch"
      ],
      [
        "Ġin",
        "s"
      ],
      [
        "ais",
        "sez"
      ],
      [
        "p",
        "er"
      ],
      [
        "Ġwat",
        "ch"
      ],
      [
        "Ġjus",
        "qu"
      ],
      [
        "Ġf",
        "ound"
      ],
      [
        "Ġf",
        "i"
      ],
      [
        "Ġar",
        "rÃªt"
      ],
      [
        "Ġc",
        "ol"
      ],
      [
        "Ġret",
        "ard"
      ],
      [
        "Ġl",
        "ost"
      ],
      [
        "Ġst",
        "r"
      ],
      [
        "Ġd",
        "orm"
      ],
      [
        "Ġhe",
        "ard"
      ],
      [
        "ĠvÃ©",
        "rit"
      ],
      [
        "ĠH",
        "is"
      ],
      [
        "Ġse",
        "en"
      ],
      [
        "Ġg",
        "ros"
      ],
      [
        "Ġsh",
        "o"
      ],
      [
        "Ġm",
        "ist"
      ],
      [
        "Ġtea",
        "cher"
      ],
      [
        "Ġs",
        "at"
      ],
      [
        "n",
        "is"
      ],
      [
        "t",
        "s"
      ],
      [
        "he",
        "ure"
      ],
      [
        "Ġ",
        "ord"
      ],
      [
        "Ġarri",
        "vÃ©"
      ],
      [
        "Ġse",
        "c"
      ],
      [
        "Ġcomm",
        "enc"
      ],
      [
        "Ġf",
        "il"
      ],
      [
        "il",
        "y"
      ],
      [
        "Ġch",
        "ange"
      ],
      [
        "all",
        "er"
      ],
      [
        "te",
        "ur"
      ],
      [
        "Ġso",
        "l"
      ],
      [
        "Ġof",
        "ten"
      ],
      [
        "Ġchild",
        "ren"
      ],
      [
        "Ġthe",
        "ir"
      ],
      [
        "Ġus",
        "e"
      ],
      [
        "Ġb",
        "oy"
      ],
      [
        "Ġstu",
        "p"
      ],
      [
        "Ġsa",
        "me"
      ],
      [
        "a",
        "z"
      ],
      [
        "ign",
        "ore"
      ],
      [
        "Ġread",
        "y"
      ],
      [
        "Ġpos",
        "sible"
      ],
      [
        "Ġm",
        "is"
      ],
      [
        "Ġser",
        "a"
      ],
      [
        "Ġache",
        "tÃ©"
      ],
      [
        "is",
        "te"
      ],
      [
        "Ġpas",
        "se"
      ],
      [
        "r",
        "ap"
      ],
      [
        "Ġha",
        "ven"
      ],
      [
        "Ġm",
        "iss"
      ],
      [
        "Ġnom",
        "bre"
      ],
      [
        "erre",
        "ur"
      ],
      [
        "r",
        "ant"
      ],
      [
        "rai",
        "d"
      ],
      [
        "Ġin",
        "f"
      ],
      [
        "jeun",
        "er"
      ],
      [
        "Ġth",
        "ese"
      ],
      [
        "ĠM",
        "ay"
      ],
      [
        "e",
        "ll"
      ],
      [
        "Ġcro",
        "is"
      ],
      [
        "Ġdiff",
        "ic"
      ],
      [
        "onn",
        "es"
      ],
      [
        "Ġw",
        "ish"
      ],
      [
        "ĠEn",
        "gl"
      ],
      [
        "Ġg",
        "ag"
      ],
      [
        "Ġbl",
        "ess"
      ],
      [
        "Ġe",
        "l"
      ],
      [
        "ĠintÃ©",
        "ress"
      ],
      [
        "Ġwat",
        "er"
      ],
      [
        "ien",
        "ne"
      ],
      [
        "ation",
        "s"
      ],
      [
        "Ġansw",
        "er"
      ],
      [
        "Ġper",
        "du"
      ],
      [
        "r",
        "ass"
      ],
      [
        "Ġtrouv",
        "Ã©"
      ],
      [
        "Ġf",
        "Ãªte"
      ],
      [
        "Ġse",
        "cre"
      ],
      [
        "Ġ",
        "K"
      ],
      [
        "Ġli",
        "re"
      ],
      [
        "lle",
        "z"
      ],
      [
        "Ġaf",
        "raid"
      ],
      [
        "Ġg",
        "Ã©"
      ],
      [
        "Ã¨",
        "res"
      ],
      [
        "aire",
        "s"
      ],
      [
        "Ġn",
        "u"
      ],
      [
        "Ġvou",
        "d"
      ],
      [
        "i",
        "ch"
      ],
      [
        "Ġstu",
        "dy"
      ],
      [
        "Ġmoin",
        "s"
      ],
      [
        "r",
        "al"
      ],
      [
        "v",
        "oir"
      ],
      [
        "ĠC",
        "ould"
      ],
      [
        "Ġs",
        "ing"
      ],
      [
        "Ġs",
        "Åĵur"
      ],
      [
        "Ġpouv",
        "ons"
      ],
      [
        "Ġl",
        "eur"
      ],
      [
        "Ġch",
        "oi"
      ],
      [
        "Ġc",
        "am"
      ],
      [
        "Ġjou",
        "er"
      ],
      [
        "Ġcon",
        "v"
      ],
      [
        "i",
        "ous"
      ],
      [
        "Ġp",
        "ort"
      ],
      [
        "Ġb",
        "ro"
      ],
      [
        "Ġd",
        "ont"
      ],
      [
        "acc",
        "ord"
      ],
      [
        "Ġst",
        "op"
      ],
      [
        "Ġpour",
        "rait"
      ],
      [
        "Ġdev",
        "ons"
      ],
      [
        "Ġdemand",
        "e"
      ],
      [
        "Ġyou",
        "n"
      ],
      [
        "it",
        "al"
      ],
      [
        "Ġel",
        "se"
      ],
      [
        "Ġe",
        "as"
      ],
      [
        "ĠA",
        "u"
      ],
      [
        "Ġm",
        "ag"
      ],
      [
        "Ġyour",
        "self"
      ],
      [
        "Ġdev",
        "en"
      ],
      [
        "Ġsort",
        "ir"
      ],
      [
        "in",
        "ce"
      ],
      [
        "Ġtravaill",
        "er"
      ],
      [
        "Ġab",
        "s"
      ],
      [
        "ĠpiÃ¨",
        "ce"
      ],
      [
        "u",
        "es"
      ],
      [
        "ag",
        "es"
      ],
      [
        "Ġbe",
        "g"
      ],
      [
        "ille",
        "z"
      ],
      [
        "Ġpers",
        "on"
      ],
      [
        "are",
        "d"
      ],
      [
        "ĠÃ©",
        "p"
      ],
      [
        "ĠU",
        "ne"
      ],
      [
        "g",
        "ry"
      ],
      [
        "ut",
        "il"
      ],
      [
        "ĠÃ©t",
        "aient"
      ],
      [
        "er",
        "ci"
      ],
      [
        "t",
        "t"
      ],
      [
        "if",
        "e"
      ],
      [
        "Ġv",
        "ois"
      ],
      [
        "Ġsu",
        "jet"
      ],
      [
        "ĠJap",
        "an"
      ],
      [
        "ĠP",
        "ar"
      ],
      [
        "Ġsupp",
        "os"
      ],
      [
        "Ġvis",
        "it"
      ],
      [
        "Ġstu",
        "d"
      ],
      [
        "Ġco",
        "ld"
      ],
      [
        "i",
        "p"
      ],
      [
        "ĠB",
        "e"
      ],
      [
        "Ġper",
        "m"
      ],
      [
        "Ġg",
        "en"
      ],
      [
        "Ġs",
        "au"
      ],
      [
        "is",
        "hed"
      ],
      [
        "Ġn",
        "our"
      ],
      [
        "ain",
        "s"
      ],
      [
        "Ġmar",
        "i"
      ],
      [
        "Ġr",
        "un"
      ],
      [
        "ent",
        "re"
      ],
      [
        "ĠEngl",
        "ish"
      ],
      [
        "v",
        "res"
      ],
      [
        "oi",
        "d"
      ],
      [
        "Ġso",
        "is"
      ],
      [
        "Ġpart",
        "y"
      ],
      [
        "Ġm",
        "ent"
      ],
      [
        "Ġnouve",
        "lle"
      ],
      [
        "Ġdo",
        "it"
      ],
      [
        "l",
        "ui"
      ],
      [
        "l",
        "t"
      ],
      [
        "Ġapp",
        "el"
      ],
      [
        "Ġg",
        "reat"
      ],
      [
        "Ġv",
        "ille"
      ],
      [
        "Ġfr",
        "Ã¨re"
      ],
      [
        "t",
        "r"
      ],
      [
        "ai",
        "e"
      ],
      [
        "Ġs",
        "k"
      ],
      [
        "Ġdon",
        "ner"
      ],
      [
        "Ġe",
        "ff"
      ],
      [
        "Ġmy",
        "self"
      ],
      [
        "ĠtÃ©lÃ©",
        "phone"
      ],
      [
        "Ġall",
        "Ã©"
      ],
      [
        "Ġle",
        "arn"
      ],
      [
        "Ġpro",
        "p"
      ],
      [
        "Ġpass",
        "er"
      ],
      [
        "ment",
        "s"
      ],
      [
        "Ġdev",
        "riez"
      ],
      [
        "Ġca",
        "fÃ©"
      ],
      [
        "ĠvÃ©rit",
        "Ã©"
      ],
      [
        "ien",
        "ce"
      ],
      [
        "Ġ",
        "erreur"
      ],
      [
        "Ġcont",
        "r"
      ],
      [
        "av",
        "ons"
      ],
      [
        "l",
        "o"
      ],
      [
        "or",
        "k"
      ],
      [
        "Ġfe",
        "w"
      ],
      [
        "ĠI",
        "n"
      ],
      [
        "Ġt",
        "ri"
      ],
      [
        "is",
        "Ã©"
      ],
      [
        "o",
        "ke"
      ],
      [
        "Ġgrand",
        "e"
      ],
      [
        "Ġjour",
        "nÃ©e"
      ],
      [
        "ĠÃ",
        "¢"
      ],
      [
        "c",
        "es"
      ],
      [
        "Ġgir",
        "l"
      ],
      [
        "Ġst",
        "ar"
      ],
      [
        "Ġpres",
        "que"
      ],
      [
        "Ġsecre",
        "t"
      ],
      [
        "Ġs",
        "ign"
      ],
      [
        "at",
        "er"
      ],
      [
        "Ġe",
        "mb"
      ],
      [
        "t",
        "oi"
      ],
      [
        "le",
        "d"
      ],
      [
        "Ġgl",
        "ad"
      ],
      [
        "Ġtalk",
        "ing"
      ],
      [
        "Ġb",
        "ought"
      ],
      [
        "Ġpre",
        "t"
      ],
      [
        "Ġsw",
        "im"
      ],
      [
        "Ġou",
        "bl"
      ],
      [
        "Ġb",
        "re"
      ],
      [
        "Ġinv",
        "it"
      ],
      [
        "Ġmat",
        "ter"
      ],
      [
        "avant",
        "age"
      ],
      [
        "Ġs",
        "al"
      ],
      [
        "h",
        "ab"
      ],
      [
        "Ġlet",
        "tre"
      ],
      [
        "i",
        "vers"
      ],
      [
        "Ġret",
        "our"
      ],
      [
        "Ġa",
        "ime"
      ],
      [
        "er",
        "ve"
      ],
      [
        "Ġent",
        "re"
      ],
      [
        "ĠA",
        "r"
      ],
      [
        "Ġwant",
        "s"
      ],
      [
        "Ġfait",
        "es"
      ],
      [
        "ce",
        "pt"
      ],
      [
        "r",
        "Ãªte"
      ],
      [
        "ar",
        "m"
      ],
      [
        "Ġtr",
        "ouve"
      ],
      [
        "app",
        "rÃ©c"
      ],
      [
        "Ġdis",
        "p"
      ],
      [
        "Ġar",
        "ound"
      ],
      [
        "y",
        "s"
      ],
      [
        "Ġd",
        "avantage"
      ],
      [
        "Ġwh",
        "ile"
      ],
      [
        "Ġlet",
        "ter"
      ],
      [
        "at",
        "h"
      ],
      [
        "Ġpens",
        "Ã©"
      ],
      [
        "is",
        "er"
      ],
      [
        "a",
        "lement"
      ],
      [
        "l",
        "Ãł"
      ],
      [
        "it",
        "es"
      ],
      [
        "a",
        "use"
      ],
      [
        "Ġn",
        "ice"
      ],
      [
        "ĠS",
        "on"
      ],
      [
        "Ġear",
        "ly"
      ],
      [
        "Ġso",
        "yez"
      ],
      [
        "Ġt",
        "our"
      ],
      [
        "Ġje",
        "une"
      ],
      [
        "ren",
        "dre"
      ],
      [
        "Ġfam",
        "ille"
      ],
      [
        "Ġp",
        "ic"
      ],
      [
        "Ġc",
        "ount"
      ],
      [
        "0",
        "0"
      ],
      [
        "Ġfil",
        "m"
      ],
      [
        "Ġpart",
        "ie"
      ],
      [
        "Ġres",
        "p"
      ],
      [
        "Ġm",
        "ight"
      ],
      [
        "ĠP",
        "ouvez"
      ],
      [
        "Ġget",
        "ting"
      ],
      [
        "Ġdiff",
        "Ã©"
      ],
      [
        "Ġphot",
        "o"
      ],
      [
        "Ġa",
        "ble"
      ],
      [
        "ĠdÃ©",
        "b"
      ],
      [
        "Ġd",
        "anger"
      ],
      [
        "Ġb",
        "ure"
      ],
      [
        "Ġf",
        "ood"
      ],
      [
        "Ġch",
        "au"
      ],
      [
        "te",
        "au"
      ],
      [
        "Ġtr",
        "ue"
      ],
      [
        "Ġprof",
        "ess"
      ],
      [
        "Ġad",
        "v"
      ],
      [
        "Ġconn",
        "ais"
      ],
      [
        "im",
        "ent"
      ],
      [
        "ill",
        "Ã©"
      ],
      [
        "Ġbure",
        "au"
      ],
      [
        "t",
        "if"
      ],
      [
        "Ġd",
        "ir"
      ],
      [
        "ond",
        "er"
      ],
      [
        "ĠT",
        "o"
      ],
      [
        "Ġdo",
        "ll"
      ],
      [
        "m",
        "Ãªme"
      ],
      [
        "Ġdev",
        "oir"
      ],
      [
        "Ġpar",
        "f"
      ],
      [
        "p",
        "ital"
      ],
      [
        "Ġknow",
        "s"
      ],
      [
        "Ġmar",
        "ried"
      ],
      [
        "in",
        "ner"
      ],
      [
        "te",
        "l"
      ],
      [
        "ct",
        "or"
      ],
      [
        "Ġp",
        "ap"
      ],
      [
        "Ġs",
        "ister"
      ],
      [
        "Ġatt",
        "ention"
      ],
      [
        "Ġemp",
        "l"
      ],
      [
        "Ġpro",
        "d"
      ],
      [
        "Ġsupp",
        "ose"
      ],
      [
        "Ġcont",
        "in"
      ],
      [
        "Ġye",
        "ar"
      ],
      [
        "Ġlook",
        "s"
      ],
      [
        "Ġs",
        "itu"
      ],
      [
        "Ġde",
        "vez"
      ],
      [
        "Ġan",
        "other"
      ],
      [
        "m",
        "ost"
      ],
      [
        "Ġli",
        "vres"
      ],
      [
        "u",
        "g"
      ],
      [
        "Ġpet",
        "ite"
      ],
      [
        "Ġdon",
        "nÃ©"
      ],
      [
        "Ġ",
        "2"
      ],
      [
        "Ġbre",
        "ak"
      ],
      [
        "Ġt",
        "ried"
      ],
      [
        "Ġw",
        "onder"
      ],
      [
        "i",
        "a"
      ],
      [
        "Ġc",
        "uis"
      ],
      [
        "Ġvoul",
        "ait"
      ],
      [
        "i",
        "v"
      ],
      [
        "Ġhur",
        "t"
      ],
      [
        "m",
        "ore"
      ],
      [
        "an",
        "y"
      ],
      [
        "ĠP",
        "eux"
      ],
      [
        "ut",
        "h"
      ],
      [
        "iz",
        "e"
      ],
      [
        "Ġter",
        "min"
      ],
      [
        "ust",
        "ral"
      ],
      [
        "Ġar",
        "g"
      ],
      [
        "Ġst",
        "art"
      ],
      [
        "Ġauc",
        "une"
      ],
      [
        "e",
        "mp"
      ],
      [
        "Ġte",
        "llement"
      ],
      [
        "ĠD",
        "is"
      ],
      [
        "ĠÃ©t",
        "iez"
      ],
      [
        "is",
        "ion"
      ],
      [
        "Ġg",
        "ent"
      ],
      [
        "Ġa",
        "ren"
      ],
      [
        "Ġten",
        "nis"
      ],
      [
        "er",
        "a"
      ],
      [
        "c",
        "in"
      ],
      [
        "Ġf",
        "au"
      ],
      [
        "Ã©",
        "d"
      ],
      [
        "Ġcom",
        "bien"
      ],
      [
        "Ġyoun",
        "g"
      ],
      [
        "Ġmeet",
        "ing"
      ],
      [
        "Ġbeau",
        "tif"
      ],
      [
        "re",
        "ux"
      ],
      [
        "Ġbr",
        "other"
      ],
      [
        "n",
        "es"
      ],
      [
        "Ġch",
        "at"
      ],
      [
        "Ġf",
        "all"
      ],
      [
        "ri",
        "re"
      ],
      [
        "Ġo",
        "wn"
      ],
      [
        "i",
        "ers"
      ],
      [
        "Ġw",
        "ind"
      ],
      [
        "Ġsu",
        "ch"
      ],
      [
        "Ġany",
        "more"
      ],
      [
        "Ġch",
        "ant"
      ],
      [
        "Ġlis",
        "ten"
      ],
      [
        "Ġh",
        "un"
      ],
      [
        "Ġin",
        "ter"
      ],
      [
        "Ġa",
        "ide"
      ],
      [
        "Ġfor",
        "g"
      ],
      [
        "i",
        "ble"
      ],
      [
        "is",
        "f"
      ],
      [
        "ĠS",
        "ome"
      ],
      [
        "Ġbeautif",
        "ul"
      ],
      [
        "Ġwould",
        "n"
      ],
      [
        "Ġmo",
        "v"
      ],
      [
        "Ġc",
        "ri"
      ],
      [
        "j",
        "oy"
      ],
      [
        "ai",
        "de"
      ],
      [
        "ress",
        "ion"
      ],
      [
        "Ġpouv",
        "oir"
      ],
      [
        "Ġven",
        "u"
      ],
      [
        "Ġf",
        "eu"
      ],
      [
        "Ġtr",
        "uth"
      ],
      [
        "Ġcert",
        "ain"
      ],
      [
        "Ġoccup",
        "Ã©"
      ],
      [
        "ĠdÃ©sol",
        "Ã©"
      ],
      [
        "Ġdiffic",
        "ult"
      ],
      [
        "Ġre",
        "l"
      ],
      [
        "Ġfin",
        "i"
      ],
      [
        "i",
        "o"
      ],
      [
        "anc",
        "es"
      ],
      [
        "in",
        "c"
      ],
      [
        "on",
        "que"
      ],
      [
        "Ġrest",
        "au"
      ],
      [
        "Ġenf",
        "ant"
      ],
      [
        "u",
        "ie"
      ],
      [
        "Ã©",
        "p"
      ],
      [
        "ĠrÃ©",
        "un"
      ],
      [
        "Ġd",
        "ays"
      ],
      [
        "ĠP",
        "eu"
      ],
      [
        "Ã©t",
        "Ã©"
      ],
      [
        "Ġbec",
        "ause"
      ],
      [
        "ict",
        "ion"
      ],
      [
        "ĠdÃ©",
        "jeuner"
      ],
      [
        "Ġme",
        "an"
      ],
      [
        "ĠV",
        "eu"
      ],
      [
        "ĠprÃ©",
        "fÃ©"
      ],
      [
        "ĠÃ©t",
        "ais"
      ],
      [
        "c",
        "ted"
      ],
      [
        "Ġpren",
        "d"
      ],
      [
        "ĠÃ©tud",
        "i"
      ],
      [
        "ffe",
        "e"
      ],
      [
        "ĠprÃ©s",
        "ent"
      ],
      [
        "ĠVeu",
        "illez"
      ],
      [
        "Ġst",
        "ation"
      ],
      [
        "om",
        "m"
      ],
      [
        "Ġc",
        "in"
      ],
      [
        "Ġn",
        "ager"
      ],
      [
        "Ġv",
        "oi"
      ],
      [
        "Ġm",
        "ine"
      ],
      [
        "Ġe",
        "y"
      ],
      [
        "p",
        "l"
      ],
      [
        "qu",
        "Ã©"
      ],
      [
        "Ġatt",
        "end"
      ],
      [
        "Ġsat",
        "isf"
      ],
      [
        "Ġc",
        "al"
      ],
      [
        "Ã©",
        "ro"
      ],
      [
        "te",
        "z"
      ],
      [
        "i",
        "ed"
      ],
      [
        "Ġdi",
        "x"
      ],
      [
        "id",
        "i"
      ],
      [
        "ad",
        "ore"
      ],
      [
        "Ġf",
        "ar"
      ],
      [
        "Ġc",
        "op"
      ],
      [
        "Ġs",
        "ous"
      ],
      [
        "ĠP",
        "ren"
      ],
      [
        "Ġcom",
        "ing"
      ],
      [
        "k",
        "en"
      ],
      [
        "n",
        "y"
      ],
      [
        "at",
        "eur"
      ],
      [
        "Ġco",
        "ffee"
      ],
      [
        "Ġsu",
        "gg"
      ],
      [
        "Ġam",
        "us"
      ],
      [
        "r",
        "Ã©e"
      ],
      [
        "Ġprob",
        "able"
      ],
      [
        "Ġm",
        "angÃ©"
      ],
      [
        "rit",
        "ure"
      ],
      [
        "Ġn",
        "at"
      ],
      [
        "Ġconf",
        "i"
      ],
      [
        "Ġdemand",
        "er"
      ],
      [
        "g",
        "ard"
      ],
      [
        "ĠT",
        "ell"
      ],
      [
        "Ġv",
        "iens"
      ],
      [
        "Ġen",
        "joy"
      ],
      [
        "Ġsu",
        "ff"
      ],
      [
        "Ġv",
        "as"
      ],
      [
        "Ġal",
        "most"
      ],
      [
        "itu",
        "de"
      ],
      [
        "Ġk",
        "id"
      ],
      [
        "ĠQuel",
        "qu"
      ],
      [
        "ren",
        "ce"
      ],
      [
        "Ġenv",
        "ie"
      ],
      [
        "Ġd",
        "inner"
      ],
      [
        "om",
        "mes"
      ],
      [
        "Ġr",
        "is"
      ],
      [
        "Ġdev",
        "rait"
      ],
      [
        "av",
        "or"
      ],
      [
        "Ġt",
        "Ãªte"
      ],
      [
        "Ġauc",
        "un"
      ],
      [
        "ll",
        "ow"
      ],
      [
        "p",
        "ort"
      ],
      [
        "Ġ",
        "util"
      ],
      [
        "Ġheure",
        "use"
      ],
      [
        "ĠM",
        "erci"
      ],
      [
        "Ġcha",
        "que"
      ],
      [
        "Ġsitu",
        "ation"
      ],
      [
        "Ġd",
        "ress"
      ],
      [
        "Ġsou",
        "h"
      ],
      [
        "ĠEvery",
        "one"
      ],
      [
        "ĠrÃ©un",
        "ion"
      ],
      [
        "Ġm",
        "ois"
      ],
      [
        "Ġv",
        "ite"
      ],
      [
        "Ġdo",
        "ctor"
      ],
      [
        "Ġmal",
        "ade"
      ],
      [
        "ais",
        "e"
      ],
      [
        "Ġon",
        "ce"
      ],
      [
        "Ġvi",
        "vre"
      ],
      [
        "arg",
        "e"
      ],
      [
        "Ġv",
        "ac"
      ],
      [
        "ure",
        "r"
      ],
      [
        "Ġser",
        "ait"
      ],
      [
        "Ġseu",
        "lement"
      ],
      [
        "Ġdiff",
        "e"
      ],
      [
        "Ġwait",
        "ing"
      ],
      [
        "Ġvi",
        "eux"
      ],
      [
        "Ġbook",
        "s"
      ],
      [
        "Ġh",
        "or"
      ],
      [
        "get",
        "her"
      ],
      [
        "Ġm",
        "ess"
      ],
      [
        "Ġw",
        "in"
      ],
      [
        "ic",
        "y"
      ],
      [
        "Ġd",
        "ro"
      ],
      [
        "Ġlors",
        "que"
      ],
      [
        "Ġcol",
        "Ã¨re"
      ],
      [
        "Ġd",
        "Ã®"
      ],
      [
        "ol",
        "og"
      ],
      [
        "Ġfam",
        "ily"
      ],
      [
        "ĠÃ©t",
        "r"
      ],
      [
        "Ġpers",
        "onnes"
      ],
      [
        "Ġcare",
        "ful"
      ],
      [
        "Ġf",
        "avor"
      ],
      [
        "ĠmÃ©",
        "de"
      ],
      [
        "Ġh",
        "ate"
      ],
      [
        "Ġshould",
        "n"
      ],
      [
        "iqu",
        "es"
      ],
      [
        "Ġs",
        "ong"
      ],
      [
        "Ġg",
        "are"
      ],
      [
        "Ġcompren",
        "dre"
      ],
      [
        "ou",
        "lez"
      ],
      [
        "ĠV",
        "eux"
      ],
      [
        "Ġton",
        "ight"
      ],
      [
        "Ġmin",
        "ute"
      ],
      [
        "Ġpour",
        "rais"
      ],
      [
        "Ġache",
        "ter"
      ],
      [
        "Ġcompren",
        "ds"
      ],
      [
        "Ġto",
        "gether"
      ],
      [
        "Ġnew",
        "s"
      ],
      [
        "Ġf",
        "ils"
      ],
      [
        "Ġrestau",
        "rant"
      ],
      [
        "Ġb",
        "it"
      ],
      [
        "Ġdev",
        "rions"
      ],
      [
        "Ġt",
        "y"
      ],
      [
        "Ġsi",
        "x"
      ],
      [
        "o",
        "on"
      ],
      [
        "Ġex",
        "am"
      ],
      [
        "s",
        "on"
      ],
      [
        "u",
        "me"
      ],
      [
        "Ġfer",
        "ais"
      ],
      [
        "b",
        "all"
      ],
      [
        "ri",
        "r"
      ],
      [
        "ĠV",
        "oulez"
      ],
      [
        "ĠD",
        "onne"
      ],
      [
        "ĠAr",
        "rÃªte"
      ],
      [
        "Ġense",
        "mble"
      ],
      [
        "ĠF",
        "ais"
      ],
      [
        "ĠsÃ»",
        "re"
      ],
      [
        "Ġwr",
        "ite"
      ],
      [
        "ĠdÃ©",
        "r"
      ],
      [
        "re",
        "am"
      ],
      [
        "au",
        "ght"
      ],
      [
        "Ġfac",
        "ile"
      ],
      [
        "ĠS",
        "a"
      ],
      [
        "Ġnour",
        "riture"
      ],
      [
        "Ġser",
        "ai"
      ],
      [
        "Ġfe",
        "lt"
      ],
      [
        "ĠdÃ©t",
        "este"
      ],
      [
        "ĠC",
        "es"
      ],
      [
        "Ġc",
        "ook"
      ],
      [
        "Ġfatigu",
        "Ã©"
      ],
      [
        "Ġa",
        "p"
      ],
      [
        "Ġr",
        "ap"
      ],
      [
        "Ġvoud",
        "rais"
      ],
      [
        "Ġte",
        "mp"
      ],
      [
        "Ġs",
        "our"
      ],
      [
        "Ġdis",
        "pos"
      ],
      [
        "us",
        "ed"
      ],
      [
        "Ġmeill",
        "eur"
      ],
      [
        "Ġgar",
        "Ã§on"
      ],
      [
        "Ġtry",
        "ing"
      ],
      [
        "Ġarri",
        "ve"
      ],
      [
        "Ġrec",
        "onn"
      ],
      [
        "Ġw",
        "rit"
      ],
      [
        "Ġin",
        "st"
      ],
      [
        "Ġsome",
        "one"
      ],
      [
        "Ġb",
        "ag"
      ],
      [
        "Ġk",
        "ill"
      ],
      [
        "ĠJap",
        "on"
      ],
      [
        "Ġdoll",
        "ars"
      ],
      [
        "Ġwork",
        "ing"
      ],
      [
        "Ġy",
        "eux"
      ],
      [
        "Ġcond",
        "uire"
      ],
      [
        "Ġp",
        "ays"
      ],
      [
        "Ġv",
        "it"
      ],
      [
        "Ġfr",
        "oid"
      ],
      [
        "Ġex",
        "ac"
      ],
      [
        "Ġth",
        "Ã©"
      ],
      [
        "Ġli",
        "kes"
      ],
      [
        "Ġfor",
        "get"
      ],
      [
        "Ġb",
        "ri"
      ],
      [
        "Ġe",
        "ach"
      ],
      [
        "ag",
        "in"
      ],
      [
        "Ġpr",
        "Ã¨s"
      ],
      [
        "pp",
        "ed"
      ],
      [
        "Ġc",
        "ours"
      ],
      [
        "Ġv",
        "ue"
      ],
      [
        "Ġa",
        "in"
      ],
      [
        "Ġlaiss",
        "er"
      ],
      [
        "Ġseem",
        "s"
      ],
      [
        "w",
        "e"
      ],
      [
        "Ġa",
        "ct"
      ],
      [
        "Ġtr",
        "ou"
      ],
      [
        "Ġb",
        "oth"
      ],
      [
        "Ġre",
        "al"
      ],
      [
        "Ġmet",
        "tre"
      ],
      [
        "ĠrÃ©pon",
        "se"
      ],
      [
        "Ġpr",
        "ud"
      ],
      [
        "Ġhis",
        "t"
      ],
      [
        "Ġwor",
        "ld"
      ],
      [
        "Ġlong",
        "er"
      ],
      [
        "Ġph",
        "one"
      ],
      [
        "Ġs",
        "it"
      ],
      [
        "Ġeas",
        "y"
      ],
      [
        "Ġb",
        "ir"
      ],
      [
        "Ġman",
        "iÃ¨re"
      ],
      [
        "ĠG",
        "et"
      ],
      [
        "oy",
        "ez"
      ],
      [
        "Ġd",
        "iction"
      ],
      [
        "Ġf",
        "ace"
      ],
      [
        "3",
        "0"
      ],
      [
        "Ġr",
        "ou"
      ],
      [
        "Ġinf",
        "orm"
      ],
      [
        "Ġoubl",
        "iÃ©"
      ],
      [
        "Ġc",
        "Ã´"
      ],
      [
        "Ã§",
        "u"
      ],
      [
        "l",
        "er"
      ],
      [
        "Ġf",
        "en"
      ],
      [
        "Ġpl",
        "ais"
      ],
      [
        "Ġser",
        "ais"
      ],
      [
        "ĠL",
        "aisse"
      ],
      [
        "Ã©",
        "g"
      ],
      [
        "ĠÃ©c",
        "rit"
      ],
      [
        "Ġb",
        "oire"
      ],
      [
        "ĠT",
        "ake"
      ],
      [
        "Ġpret",
        "ty"
      ],
      [
        "Ġjour",
        "n"
      ],
      [
        "Ġresp",
        "ons"
      ],
      [
        "om",
        "an"
      ],
      [
        "Ġsu",
        "cc"
      ],
      [
        "Ġlaiss",
        "Ã©"
      ],
      [
        "re",
        "t"
      ],
      [
        "Ġwor",
        "d"
      ],
      [
        "Ġregard",
        "er"
      ],
      [
        "Ġs",
        "ick"
      ],
      [
        "ar",
        "k"
      ],
      [
        "Ġli",
        "ght"
      ],
      [
        "Ġres",
        "te"
      ],
      [
        "ient",
        "Ã´t"
      ],
      [
        "ig",
        "e"
      ],
      [
        "Ġr",
        "Ãª"
      ],
      [
        "Ġ",
        "ir"
      ],
      [
        "ĠW",
        "ill"
      ],
      [
        "r",
        "as"
      ],
      [
        "Ġconfi",
        "ance"
      ],
      [
        "Ġbe",
        "h"
      ],
      [
        "ĠA",
        "ustral"
      ],
      [
        "Ġche",
        "min"
      ],
      [
        "Ġpi",
        "an"
      ],
      [
        "Ġdi",
        "ed"
      ],
      [
        "Ġco",
        "Ã»"
      ],
      [
        "ĠS",
        "h"
      ],
      [
        "Ġex",
        "act"
      ],
      [
        "Ġprem",
        "ier"
      ],
      [
        "Ã¨",
        "te"
      ],
      [
        "Ġam",
        "ie"
      ],
      [
        "Ġaut",
        "ant"
      ],
      [
        "t",
        "il"
      ],
      [
        "Ġs",
        "Ã©ri"
      ],
      [
        "Ġrap",
        "ide"
      ],
      [
        "Ġtravai",
        "lle"
      ],
      [
        "Ġessay",
        "Ã©"
      ],
      [
        "Ġbe",
        "lle"
      ],
      [
        "l",
        "ot"
      ],
      [
        "u",
        "ally"
      ],
      [
        "Ġm",
        "en"
      ],
      [
        "Ġa",
        "ir"
      ],
      [
        "Ġs",
        "l"
      ],
      [
        "Ġce",
        "lui"
      ],
      [
        "Ġb",
        "i"
      ],
      [
        "Ġstar",
        "ted"
      ],
      [
        "r",
        "ons"
      ],
      [
        "Ġpu",
        "bl"
      ],
      [
        "Ġf",
        "on"
      ],
      [
        "vis",
        "ion"
      ],
      [
        "Ġtra",
        "vers"
      ],
      [
        "Ġconn",
        "aiss"
      ],
      [
        "Ġcomp",
        "te"
      ],
      [
        "Ġain",
        "si"
      ],
      [
        "Ã©l",
        "o"
      ],
      [
        "ĠG",
        "o"
      ],
      [
        "Ġh",
        "igh"
      ],
      [
        "ĠG",
        "ive"
      ],
      [
        "Ġw",
        "ife"
      ],
      [
        "Ġb",
        "icy"
      ],
      [
        "att",
        "end"
      ],
      [
        "ce",
        "p"
      ],
      [
        "Ġcl",
        "ass"
      ],
      [
        "Ġaut",
        "res"
      ],
      [
        "Ġexac",
        "tement"
      ],
      [
        "ĠTh",
        "ank"
      ],
      [
        "Ġdorm",
        "ir"
      ],
      [
        "ou",
        "bl"
      ],
      [
        "Ġst",
        "and"
      ],
      [
        "oy",
        "er"
      ],
      [
        "oi",
        "g"
      ],
      [
        "d",
        "ic"
      ],
      [
        "Ġg",
        "one"
      ],
      [
        "Ġfin",
        "ished"
      ],
      [
        "o",
        "cc"
      ],
      [
        "Ġb",
        "ientÃ´t"
      ],
      [
        "and",
        "e"
      ],
      [
        "Ġdern",
        "ier"
      ],
      [
        "Ġcont",
        "re"
      ],
      [
        "ĠDo",
        "es"
      ],
      [
        "Ġparl",
        "Ã©"
      ],
      [
        "Ġstup",
        "id"
      ],
      [
        "Ġb",
        "or"
      ],
      [
        "Ġta",
        "x"
      ],
      [
        "Ġwind",
        "ow"
      ],
      [
        "Ġf",
        "it"
      ],
      [
        "Ġsurpris",
        "ed"
      ],
      [
        "Ġwe",
        "ar"
      ],
      [
        "Ġpris",
        "on"
      ],
      [
        "Ġarri",
        "ver"
      ],
      [
        "ĠÂ",
        "»"
      ],
      [
        "Ġf",
        "our"
      ],
      [
        "Ġbicy",
        "cle"
      ],
      [
        "Ġt",
        "ant"
      ],
      [
        "Ġsp",
        "end"
      ],
      [
        "c",
        "er"
      ],
      [
        "n",
        "a"
      ],
      [
        "iss",
        "ion"
      ],
      [
        "Ġlu",
        "ck"
      ],
      [
        "Ġm",
        "ost"
      ],
      [
        "Ġvoy",
        "age"
      ],
      [
        "Ġconn",
        "a"
      ],
      [
        "Ġarri",
        "v"
      ],
      [
        "Ġpri",
        "x"
      ],
      [
        "Ġth",
        "ose"
      ],
      [
        "Ġf",
        "ig"
      ],
      [
        "Ġend",
        "roit"
      ],
      [
        "Ġm",
        "il"
      ],
      [
        "Ġf",
        "a"
      ],
      [
        "Ġv",
        "Ã©lo"
      ],
      [
        "an",
        "che"
      ],
      [
        "as",
        "on"
      ],
      [
        "Ġr",
        "ad"
      ],
      [
        "ĠSt",
        "op"
      ],
      [
        "ĠcÃ´",
        "tÃ©"
      ],
      [
        "Ġcont",
        "ent"
      ],
      [
        "Ġd",
        "rive"
      ],
      [
        "Ġvi",
        "ent"
      ],
      [
        "id",
        "ed"
      ],
      [
        "Ġar",
        "t"
      ],
      [
        "ag",
        "ne"
      ],
      [
        "Ġcha",
        "uss"
      ],
      [
        "Ġan",
        "im"
      ],
      [
        "eu",
        "re"
      ],
      [
        "Ġs",
        "y"
      ],
      [
        "Ġmus",
        "ic"
      ],
      [
        "k",
        "y"
      ],
      [
        "Ġlook",
        "ed"
      ],
      [
        "ar",
        "rÃªt"
      ],
      [
        "Ġatt",
        "endre"
      ],
      [
        "Ġpart",
        "i"
      ],
      [
        "Ġmus",
        "ique"
      ],
      [
        "ĠmÃ©de",
        "cin"
      ],
      [
        "Ġto",
        "r"
      ],
      [
        "Ġbou",
        "lot"
      ],
      [
        "m",
        "idi"
      ],
      [
        "Ġ",
        "\""
      ],
      [
        "ai",
        "te"
      ],
      [
        "Ġad",
        "m"
      ],
      [
        "ĠRe",
        "gard"
      ],
      [
        "Ġn",
        "os"
      ],
      [
        "ĠÃī",
        "t"
      ],
      [
        "Ġforg",
        "ot"
      ],
      [
        "Ġfo",
        "llow"
      ],
      [
        "Ġmist",
        "ake"
      ],
      [
        "c",
        "u"
      ],
      [
        "ĠdÃ®",
        "ner"
      ],
      [
        "Ġal",
        "ors"
      ],
      [
        "Ġpouv",
        "ais"
      ],
      [
        "Ġren",
        "tre"
      ],
      [
        "Ġpi",
        "ed"
      ],
      [
        "Ġqu",
        "ite"
      ],
      [
        "u",
        "y"
      ],
      [
        "ver",
        "t"
      ],
      [
        "Ġdes",
        "s"
      ],
      [
        "Ġche",
        "ve"
      ],
      [
        "Ġlun",
        "ch"
      ],
      [
        "Ġcontin",
        "u"
      ],
      [
        "Ġprobable",
        "ment"
      ],
      [
        "Ġf",
        "ou"
      ],
      [
        "ic",
        "onque"
      ],
      [
        "Ġch",
        "ans"
      ],
      [
        "ant",
        "Ã©"
      ],
      [
        "Ġpl",
        "ut"
      ],
      [
        "am",
        "ment"
      ],
      [
        "Ġver",
        "re"
      ],
      [
        "apprÃ©c",
        "ie"
      ],
      [
        "iqu",
        "er"
      ],
      [
        "b",
        "Ã©"
      ],
      [
        "e",
        "ver"
      ],
      [
        "Ġb",
        "ois"
      ],
      [
        "ĠA",
        "pp"
      ],
      [
        "Ġproch",
        "aine"
      ],
      [
        "Ġm",
        "ange"
      ],
      [
        "w",
        "here"
      ],
      [
        "Ġm",
        "our"
      ],
      [
        "Ġmont",
        "h"
      ],
      [
        "Ġpens",
        "er"
      ],
      [
        "et",
        "tes"
      ],
      [
        "Ġpian",
        "o"
      ],
      [
        "Ġgen",
        "re"
      ],
      [
        "in",
        "ess"
      ],
      [
        "Ã©c",
        "ess"
      ],
      [
        "Ġs",
        "il"
      ],
      [
        "res",
        "se"
      ],
      [
        "ĠCom",
        "e"
      ],
      [
        "ĠPeu",
        "t"
      ],
      [
        "ure",
        "d"
      ],
      [
        "Ġcomp",
        "le"
      ],
      [
        "ĠrÃ©",
        "f"
      ],
      [
        "Ġpl",
        "ait"
      ],
      [
        "Ġl",
        "oin"
      ],
      [
        "Ġli",
        "eu"
      ],
      [
        "Ġtr",
        "u"
      ],
      [
        "Ġne",
        "ar"
      ],
      [
        "Ġh",
        "um"
      ],
      [
        "ĠN",
        "ob"
      ],
      [
        "Ġoff",
        "ice"
      ],
      [
        "Ġch",
        "ang"
      ],
      [
        "ur",
        "g"
      ],
      [
        "Ġprofess",
        "eur"
      ],
      [
        "ĠÃ¢",
        "ge"
      ],
      [
        "Ġf",
        "ire"
      ],
      [
        "ren",
        "te"
      ],
      [
        "k",
        "ed"
      ],
      [
        "ĠM",
        "es"
      ],
      [
        "Ġmov",
        "ie"
      ],
      [
        "o",
        "ck"
      ],
      [
        "ĠL",
        "aissez"
      ],
      [
        "ri",
        "ble"
      ],
      [
        "ill",
        "er"
      ],
      [
        "Ġun",
        "til"
      ],
      [
        "ĠT",
        "ous"
      ],
      [
        "Ġop",
        "in"
      ],
      [
        "Ġc",
        "as"
      ],
      [
        "Ġh",
        "on"
      ],
      [
        "et",
        "tre"
      ],
      [
        "h",
        "ors"
      ],
      [
        "l",
        "ais"
      ],
      [
        "Ġb",
        "Ã©"
      ],
      [
        "ĠNob",
        "ody"
      ],
      [
        "Ġwe",
        "ather"
      ],
      [
        "Ġv",
        "ers"
      ],
      [
        "are",
        "r"
      ],
      [
        "Ġcheve",
        "ux"
      ],
      [
        "Ġtr",
        "ust"
      ],
      [
        "tu",
        "r"
      ],
      [
        "Ġst",
        "ory"
      ],
      [
        "Ġg",
        "Ã¢"
      ],
      [
        "h",
        "Ã´"
      ],
      [
        "Ġh",
        "air"
      ],
      [
        "Ġr",
        "u"
      ],
      [
        "at",
        "es"
      ],
      [
        "Â",
        "»"
      ],
      [
        "Ġn",
        "Ã©cess"
      ],
      [
        "Ġma",
        "kes"
      ],
      [
        "Ġpuis",
        "se"
      ],
      [
        "Ġb",
        "at"
      ],
      [
        "in",
        "tÃ©"
      ],
      [
        "at",
        "ing"
      ],
      [
        "Ġtr",
        "ans"
      ],
      [
        "Ġp",
        "ois"
      ],
      [
        "Ġpens",
        "es"
      ],
      [
        "Ġca",
        "use"
      ],
      [
        "ait",
        "es"
      ],
      [
        "Ġevery",
        "one"
      ],
      [
        "Ġund",
        "er"
      ],
      [
        "Ġsuppos",
        "ed"
      ],
      [
        "Ġprem",
        "iÃ¨re"
      ],
      [
        "Ġplut",
        "Ã´t"
      ],
      [
        "Ġwor",
        "ry"
      ],
      [
        "Ġey",
        "es"
      ],
      [
        "m",
        "an"
      ],
      [
        "os",
        "s"
      ],
      [
        "Ġmont",
        "re"
      ],
      [
        "Ġt",
        "ick"
      ],
      [
        "Ġyour",
        "s"
      ],
      [
        "ĠT",
        "V"
      ],
      [
        "Ġapp",
        "rÃ©c"
      ],
      [
        "Ġd",
        "ream"
      ],
      [
        "Ġs",
        "ince"
      ],
      [
        "Ġde",
        "hors"
      ],
      [
        "Ġjourn",
        "al"
      ],
      [
        "Ġprom",
        "is"
      ],
      [
        "use",
        "ment"
      ],
      [
        "Ġchant",
        "er"
      ],
      [
        "Ġhab",
        "it"
      ],
      [
        "ang",
        "lais"
      ],
      [
        "Ġfen",
        "Ãªtre"
      ],
      [
        "ven",
        "u"
      ],
      [
        "Ġd",
        "ri"
      ],
      [
        "Ġs",
        "ac"
      ],
      [
        "Ġim",
        "agin"
      ],
      [
        "Ã¨",
        "mes"
      ],
      [
        "Ġcor",
        "re"
      ],
      [
        "Ġser",
        "ious"
      ],
      [
        "ĠprÃ©",
        "v"
      ],
      [
        "w",
        "ork"
      ],
      [
        "Ġf",
        "ast"
      ],
      [
        "Ġh",
        "ours"
      ],
      [
        "Ġag",
        "o"
      ],
      [
        "ab",
        "ly"
      ],
      [
        "n",
        "ent"
      ],
      [
        "av",
        "ait"
      ],
      [
        "Ġany",
        "body"
      ],
      [
        "Ġac",
        "tu"
      ],
      [
        "e",
        "m"
      ],
      [
        "Ġb",
        "an"
      ],
      [
        "Ġp",
        "op"
      ],
      [
        "ens",
        "es"
      ],
      [
        "el",
        "er"
      ],
      [
        "w",
        "ard"
      ],
      [
        "Ġapp",
        "ris"
      ],
      [
        "ain",
        "es"
      ],
      [
        "Ġcl",
        "os"
      ],
      [
        "Ġdisc",
        "uss"
      ],
      [
        "Ġan",
        "gry"
      ],
      [
        "Ġhe",
        "ad"
      ],
      [
        "Ġg",
        "uit"
      ],
      [
        "je",
        "ct"
      ],
      [
        "Ġbro",
        "ke"
      ],
      [
        "mÃ©",
        "di"
      ],
      [
        "Ġread",
        "ing"
      ],
      [
        "Ġsm",
        "all"
      ],
      [
        "Ġpay",
        "er"
      ],
      [
        "Ġprod",
        "uit"
      ],
      [
        "Ġfai",
        "m"
      ],
      [
        "Ġs",
        "us"
      ],
      [
        "ri",
        "Ã¨re"
      ],
      [
        "par",
        "avant"
      ],
      [
        "Ġfon",
        "ction"
      ],
      [
        "Ġgu",
        "ess"
      ],
      [
        "Ġag",
        "ree"
      ],
      [
        "i",
        "al"
      ],
      [
        "u",
        "f"
      ],
      [
        "ĠÃ©",
        "ch"
      ],
      [
        "r",
        "Ã©s"
      ],
      [
        "z",
        "e"
      ],
      [
        "Ġt",
        "imes"
      ],
      [
        "Ġv",
        "al"
      ],
      [
        "l",
        "ess"
      ],
      [
        "Ġs",
        "Ã©"
      ],
      [
        "ign",
        "or"
      ],
      [
        "ĠdÃ©",
        "m"
      ],
      [
        "Ġchoi",
        "x"
      ],
      [
        "h",
        "omme"
      ],
      [
        "Ġl",
        "eurs"
      ],
      [
        "ur",
        "itÃ©"
      ],
      [
        "ĠdÃ©c",
        "idÃ©"
      ],
      [
        "ĠV",
        "otre"
      ],
      [
        "ut",
        "ion"
      ],
      [
        "ĠEs",
        "s"
      ],
      [
        "Ġes",
        "p"
      ],
      [
        "Ġjou",
        "e"
      ],
      [
        "Ġessay",
        "er"
      ],
      [
        "en",
        "ir"
      ],
      [
        "Ġsu",
        "per"
      ],
      [
        "Ġarg",
        "ent"
      ],
      [
        "ĠJ",
        "ust"
      ],
      [
        "gh",
        "ter"
      ],
      [
        "Ġpat",
        "ient"
      ],
      [
        "i",
        "b"
      ],
      [
        "bl",
        "ig"
      ],
      [
        "Ġau",
        "paravant"
      ],
      [
        "imp",
        "orte"
      ],
      [
        "r",
        "on"
      ],
      [
        "Ġha",
        "ving"
      ],
      [
        "Ġexact",
        "ly"
      ],
      [
        "Ãª",
        "cher"
      ],
      [
        "Ġim",
        "mÃ©di"
      ],
      [
        "Ġj",
        "oin"
      ],
      [
        "Ġall",
        "ons"
      ],
      [
        "Ġfe",
        "ll"
      ],
      [
        "Ġadv",
        "ice"
      ],
      [
        "Ġ",
        "ouv"
      ],
      [
        "Ġv",
        "in"
      ],
      [
        "Ġhim",
        "self"
      ],
      [
        "Ġpic",
        "ture"
      ],
      [
        "ate",
        "ment"
      ],
      [
        "ĠF",
        "r"
      ],
      [
        "Ġpeu",
        "vent"
      ],
      [
        "ass",
        "es"
      ],
      [
        "Ġreg",
        "ret"
      ],
      [
        "Ġplay",
        "ing"
      ],
      [
        "Ġent",
        "endre"
      ],
      [
        "Ġrad",
        "io"
      ],
      [
        "Ġch",
        "anger"
      ],
      [
        "Ġcl",
        "ose"
      ],
      [
        "Ġk",
        "iss"
      ],
      [
        "Ġco",
        "lle"
      ],
      [
        "Ġchau",
        "d"
      ],
      [
        "a",
        "bles"
      ],
      [
        "Ġex",
        "pect"
      ],
      [
        "ĠrÃ©",
        "ve"
      ],
      [
        "Ġfo",
        "ot"
      ],
      [
        "Ġcall",
        "ed"
      ],
      [
        "l",
        "s"
      ],
      [
        "Ġdis",
        "t"
      ],
      [
        "Ġad",
        "d"
      ],
      [
        "Ġtrou",
        "ble"
      ],
      [
        "Ġsa",
        "fe"
      ],
      [
        "Ã",
        "¯"
      ],
      [
        "Ġus",
        "ually"
      ],
      [
        "Ġs",
        "Ã©c"
      ],
      [
        "gl",
        "ais"
      ],
      [
        "ar",
        "rass"
      ],
      [
        "ĠO",
        "ur"
      ],
      [
        "Ġc",
        "aught"
      ],
      [
        "ll",
        "ig"
      ],
      [
        "Ġconc",
        "ert"
      ],
      [
        "n",
        "oon"
      ],
      [
        "Ġple",
        "u"
      ],
      [
        "Ġrencont",
        "rer"
      ],
      [
        "ten",
        "ir"
      ],
      [
        "Ġsurpr",
        "ise"
      ],
      [
        "Ġt",
        "re"
      ],
      [
        "Ġdisc",
        "uter"
      ],
      [
        "ic",
        "al"
      ],
      [
        "ĠA",
        "m"
      ],
      [
        "Ġdit",
        "es"
      ],
      [
        "Ġfeel",
        "ing"
      ],
      [
        "Ġafter",
        "noon"
      ],
      [
        "Ġj",
        "u"
      ],
      [
        "Ġre",
        "ason"
      ],
      [
        "Ġs",
        "ays"
      ],
      [
        "Ġli",
        "ves"
      ],
      [
        "c",
        "s"
      ],
      [
        "Ġvi",
        "end"
      ],
      [
        "Ġmar",
        "cher"
      ],
      [
        "Ġdec",
        "ided"
      ],
      [
        "Ġs",
        "te"
      ],
      [
        "Ġstud",
        "ents"
      ],
      [
        "ĠPour",
        "riez"
      ],
      [
        "Ġcount",
        "ry"
      ],
      [
        "Ġexpl",
        "ain"
      ],
      [
        "Ġf",
        "ree"
      ],
      [
        "Ġr",
        "an"
      ],
      [
        "ĠÃ©",
        "g"
      ],
      [
        "Ġturn",
        "ed"
      ],
      [
        "Ġcle",
        "an"
      ],
      [
        "c",
        "ed"
      ],
      [
        "Ġprobl",
        "Ã¨mes"
      ],
      [
        "al",
        "th"
      ],
      [
        "Ġapp",
        "rendre"
      ],
      [
        "Ġfi",
        "x"
      ],
      [
        "ĠdÃ©sol",
        "Ã©e"
      ],
      [
        "Ġhand",
        "s"
      ],
      [
        "ky",
        "o"
      ],
      [
        "Ġopin",
        "ion"
      ],
      [
        "Ġb",
        "ill"
      ],
      [
        "Ġhist",
        "oire"
      ],
      [
        "Ġb",
        "out"
      ],
      [
        "Ġdevoir",
        "s"
      ],
      [
        "Ġinteres",
        "ted"
      ],
      [
        "c",
        "tu"
      ],
      [
        "al",
        "s"
      ],
      [
        "Ġvi",
        "v"
      ],
      [
        "ĠTo",
        "kyo"
      ],
      [
        "Ġes",
        "c"
      ],
      [
        "Ġnouve",
        "lles"
      ],
      [
        "Ġpouv",
        "ait"
      ],
      [
        "Ġproch",
        "ain"
      ],
      [
        "Ġre",
        "d"
      ],
      [
        "Ġeat",
        "ing"
      ],
      [
        "Ġar",
        "m"
      ],
      [
        "ĠimmÃ©di",
        "atement"
      ],
      [
        "Ġcomm",
        "ence"
      ],
      [
        "Ġpop",
        "ul"
      ],
      [
        "Ġh",
        "ot"
      ],
      [
        "Ġte",
        "ach"
      ],
      [
        "Ġall",
        "ow"
      ],
      [
        "Ġc",
        "ry"
      ],
      [
        "Ġwe",
        "ren"
      ],
      [
        "Ġapp",
        "re"
      ],
      [
        "Ġconv",
        "ain"
      ],
      [
        "Ġd",
        "au"
      ],
      [
        "Ġpense",
        "z"
      ],
      [
        "Ġinte",
        "llig"
      ],
      [
        "Ġt",
        "ent"
      ],
      [
        "Ġb",
        "ar"
      ],
      [
        "Ġty",
        "pe"
      ],
      [
        "s",
        "ide"
      ],
      [
        "Ġprob",
        "ably"
      ],
      [
        "Ã§",
        "ons"
      ],
      [
        "Ã´",
        "le"
      ],
      [
        "Ġb",
        "as"
      ],
      [
        "in",
        "er"
      ],
      [
        "l",
        "i"
      ],
      [
        "Ġmess",
        "age"
      ],
      [
        "Ġpr",
        "Ã©c"
      ],
      [
        "Ġimp",
        "os"
      ],
      [
        "Ġvis",
        "ite"
      ],
      [
        "ai",
        "lle"
      ],
      [
        "Ġpr",
        "oud"
      ],
      [
        "Ġinteres",
        "ting"
      ],
      [
        "Ġr",
        "ac"
      ],
      [
        "ĠN",
        "otre"
      ],
      [
        "r",
        "ou"
      ],
      [
        "mer",
        "ic"
      ],
      [
        "Ġappre",
        "ci"
      ],
      [
        "ap",
        "on"
      ],
      [
        "Ġv",
        "ont"
      ],
      [
        "Ġarri",
        "ved"
      ],
      [
        "ĠprÃ©",
        "f"
      ],
      [
        "ĠrÃ©pon",
        "dre"
      ],
      [
        "oth",
        "ers"
      ],
      [
        "Ġper",
        "dre"
      ],
      [
        "Ã©",
        "m"
      ],
      [
        "ĠH",
        "er"
      ],
      [
        "Ġsem",
        "bl"
      ],
      [
        "Ġo",
        "blig"
      ],
      [
        "ak",
        "es"
      ],
      [
        "Ġbo",
        "x"
      ],
      [
        "ort",
        "h"
      ],
      [
        "ĠsÃ©c",
        "uritÃ©"
      ],
      [
        "Ġ",
        "Åĵ"
      ],
      [
        "ĠA",
        "meric"
      ],
      [
        "Ġrencont",
        "rÃ©"
      ],
      [
        "Ġc",
        "ass"
      ],
      [
        "Ġto",
        "wn"
      ],
      [
        "Ġoccup",
        "Ã©e"
      ],
      [
        "Ġde",
        "ad"
      ],
      [
        "ĠÃ©t",
        "ions"
      ],
      [
        "ĠEvery",
        "body"
      ],
      [
        "ĠPour",
        "rais"
      ],
      [
        "Ã¨",
        "ve"
      ],
      [
        "Ġnu",
        "mber"
      ],
      [
        "us",
        "er"
      ],
      [
        "Ġth",
        "r"
      ],
      [
        "Ġsuff",
        "is"
      ],
      [
        "Ġan",
        "glais"
      ],
      [
        "Ġthink",
        "ing"
      ],
      [
        "Ġdis",
        "app"
      ],
      [
        "Ġc",
        "ost"
      ],
      [
        "Ġm",
        "oy"
      ],
      [
        "Ġso",
        "ld"
      ],
      [
        "ven",
        "ir"
      ],
      [
        "Ġdiffe",
        "rent"
      ],
      [
        "Ġr",
        "Ã¨"
      ],
      [
        "Ġbo",
        "Ã®"
      ],
      [
        "Ġg",
        "ame"
      ],
      [
        "Ġense",
        "ign"
      ],
      [
        "v",
        "it"
      ],
      [
        "Ġs",
        "avez"
      ],
      [
        "Ġpe",
        "ine"
      ],
      [
        "Ġin",
        "d"
      ],
      [
        "Ġlang",
        "u"
      ],
      [
        "le",
        "t"
      ],
      [
        "Ġatt",
        "rap"
      ],
      [
        "Ġord",
        "in"
      ],
      [
        "Ġcommenc",
        "Ã©"
      ],
      [
        "Ġli",
        "b"
      ],
      [
        "ĠA",
        "tt"
      ],
      [
        "en",
        "ez"
      ],
      [
        "Ġpar",
        "ce"
      ],
      [
        "us",
        "Ã©"
      ],
      [
        "lÃ©",
        "ch"
      ],
      [
        "Ġchauss",
        "ures"
      ],
      [
        "Ġpar",
        "c"
      ],
      [
        "Ġam",
        "ou"
      ],
      [
        "ĠnÃ©cess",
        "aire"
      ],
      [
        "Ġs",
        "now"
      ],
      [
        "al",
        "ent"
      ],
      [
        "qui",
        "pe"
      ],
      [
        "Ã®",
        "tre"
      ],
      [
        "e",
        "ep"
      ],
      [
        "Ġad",
        "vis"
      ],
      [
        "Ġp",
        "un"
      ],
      [
        "ĠV",
        "oud"
      ],
      [
        "Ġcher",
        "cher"
      ],
      [
        "ig",
        "ne"
      ],
      [
        "i",
        "ot"
      ],
      [
        "Ġsav",
        "ait"
      ],
      [
        "Ġgag",
        "ner"
      ],
      [
        "Ġla",
        "w"
      ],
      [
        "Ġle",
        "av"
      ],
      [
        "ĠL",
        "ook"
      ],
      [
        "Ġtermin",
        "Ã©"
      ],
      [
        "Ã¨",
        "tement"
      ],
      [
        "ck",
        "ed"
      ],
      [
        "Ġl",
        "um"
      ],
      [
        "Ġth",
        "ir"
      ],
      [
        "Ġf",
        "ier"
      ],
      [
        "Ġmain",
        "s"
      ],
      [
        "Ġcat",
        "ch"
      ],
      [
        "ag",
        "Ã©"
      ],
      [
        "Ġc",
        "u"
      ],
      [
        "Ġb",
        "ab"
      ],
      [
        "Ġthr",
        "ough"
      ],
      [
        "ri",
        "eur"
      ],
      [
        "Ġmag",
        "as"
      ],
      [
        "Ġsu",
        "m"
      ],
      [
        "ll",
        "y"
      ],
      [
        "ĠÃ©c",
        "rire"
      ],
      [
        "e",
        "red"
      ],
      [
        "ĠWh",
        "ich"
      ],
      [
        "iz",
        "ed"
      ],
      [
        "Ġdisp",
        "ose"
      ],
      [
        "Ġqu",
        "ick"
      ],
      [
        "Ġhome",
        "work"
      ],
      [
        "Ġma",
        "ch"
      ],
      [
        "Ġsu",
        "b"
      ],
      [
        "ag",
        "it"
      ],
      [
        "Ġa",
        "llez"
      ],
      [
        "Ġre",
        "voir"
      ],
      [
        "Ã¢",
        "t"
      ],
      [
        "Ġl",
        "ater"
      ],
      [
        "Ġc",
        "ent"
      ],
      [
        "Ġch",
        "ois"
      ],
      [
        "in",
        "st"
      ],
      [
        "g",
        "r"
      ],
      [
        "Ġri",
        "che"
      ],
      [
        "d",
        "d"
      ],
      [
        "ic",
        "ul"
      ],
      [
        "Ġapp",
        "ro"
      ],
      [
        "Ġag",
        "e"
      ],
      [
        "o",
        "h"
      ],
      [
        "Ġc",
        "ade"
      ],
      [
        "Ġte",
        "le"
      ],
      [
        "ĠTh",
        "ese"
      ],
      [
        "Ġcin",
        "q"
      ],
      [
        "Ġdau",
        "ghter"
      ],
      [
        "Ġtomb",
        "er"
      ],
      [
        "ĠJapan",
        "ese"
      ],
      [
        "Ġc",
        "oin"
      ],
      [
        "Ġcompl",
        "Ã¨tement"
      ],
      [
        "ĠK",
        "eep"
      ],
      [
        "Ġadvis",
        "ed"
      ],
      [
        "ĠÃ©tud",
        "ier"
      ],
      [
        "Ġlang",
        "ue"
      ],
      [
        "Ġcl",
        "asse"
      ],
      [
        "Ġfavor",
        "ite"
      ],
      [
        "Ġs",
        "antÃ©"
      ],
      [
        "am",
        "ed"
      ],
      [
        "Ġren",
        "t"
      ],
      [
        "Ġtri",
        "p"
      ],
      [
        "ire",
        "r"
      ],
      [
        "leur",
        "s"
      ],
      [
        "Ġnombre",
        "ux"
      ],
      [
        "Ġimpos",
        "sible"
      ],
      [
        "Ġg",
        "i"
      ],
      [
        "Ġprop",
        "re"
      ],
      [
        ".",
        "\""
      ],
      [
        "ĠN",
        "ot"
      ],
      [
        "ĠV",
        "oi"
      ],
      [
        "che",
        "d"
      ],
      [
        "fe",
        "ct"
      ],
      [
        "c",
        "teur"
      ],
      [
        "on",
        "de"
      ],
      [
        "Ġau",
        "rait"
      ],
      [
        "Ġbless",
        "Ã©"
      ],
      [
        "Ġpubl",
        "ic"
      ],
      [
        "Ġs",
        "oi"
      ],
      [
        "Ġim",
        "m"
      ],
      [
        "Ġsugg",
        "est"
      ],
      [
        "Ġvoul",
        "ons"
      ],
      [
        "ĠÃ©c",
        "out"
      ],
      [
        "b",
        "as"
      ],
      [
        "que",
        "l"
      ],
      [
        "ĠP",
        "ense"
      ],
      [
        "Ġass",
        "is"
      ],
      [
        "Ġappreci",
        "ate"
      ],
      [
        "Ġav",
        "ais"
      ],
      [
        "pe",
        "au"
      ],
      [
        "Ġn",
        "um"
      ],
      [
        "l",
        "us"
      ],
      [
        "r",
        "ay"
      ],
      [
        "Ġrentre",
        "r"
      ],
      [
        "Ġpar",
        "k"
      ],
      [
        "ri",
        "c"
      ],
      [
        "Ġfer",
        "ai"
      ],
      [
        "o",
        "king"
      ],
      [
        "Ġp",
        "ress"
      ],
      [
        "ant",
        "es"
      ],
      [
        "ĠS",
        "ais"
      ],
      [
        "er",
        "ais"
      ],
      [
        "Ġri",
        "ch"
      ],
      [
        "Ġchans",
        "on"
      ],
      [
        "t",
        "her"
      ],
      [
        "que",
        "lle"
      ],
      [
        "Ġcert",
        "aine"
      ],
      [
        "ĠdÃ©c",
        "ision"
      ],
      [
        "g",
        "an"
      ],
      [
        "ar",
        "ri"
      ],
      [
        "Ġab",
        "and"
      ],
      [
        "n",
        "ed"
      ],
      [
        "Ġl",
        "arge"
      ],
      [
        "Ġout",
        "side"
      ],
      [
        "Ġlun",
        "di"
      ],
      [
        "Ġil",
        "s"
      ],
      [
        "Ġbr",
        "uit"
      ],
      [
        "Ġcap",
        "able"
      ],
      [
        "Ġst",
        "o"
      ],
      [
        "n",
        "ot"
      ],
      [
        "Ġs",
        "un"
      ],
      [
        "Ġh",
        "os"
      ],
      [
        "Ġagain",
        "st"
      ],
      [
        "Ġac",
        "cep"
      ],
      [
        "g",
        "Ã©"
      ],
      [
        "Ã",
        "§a"
      ],
      [
        "Ġpr",
        "in"
      ],
      [
        "ĠP",
        "enses"
      ],
      [
        "Ġen",
        "n"
      ],
      [
        "Ġfr",
        "app"
      ],
      [
        "Ġtou",
        "ch"
      ],
      [
        "ĠF",
        "aites"
      ],
      [
        "ate",
        "ly"
      ],
      [
        "Ġtax",
        "i"
      ],
      [
        "Ġl",
        "aisse"
      ],
      [
        "Ġfin",
        "ish"
      ],
      [
        "Ġd",
        "im"
      ],
      [
        "Ġsay",
        "ing"
      ],
      [
        "Ġli",
        "ving"
      ],
      [
        "ĠD",
        "ites"
      ],
      [
        "Ġempl",
        "oi"
      ],
      [
        "Ġb",
        "ase"
      ],
      [
        "Ġder",
        "riÃ¨re"
      ],
      [
        "ĠdÃ©",
        "f"
      ],
      [
        "Ã©t",
        "ud"
      ],
      [
        "Ġs",
        "orte"
      ],
      [
        "Ġdeven",
        "ir"
      ],
      [
        "ith",
        "er"
      ],
      [
        "ci",
        "ent"
      ],
      [
        "Ġg",
        "row"
      ],
      [
        "oy",
        "Ã©"
      ],
      [
        "ĠboÃ®",
        "te"
      ],
      [
        "Ġc",
        "Åĵur"
      ],
      [
        "ĠE",
        "x"
      ],
      [
        "Ġrapide",
        "ment"
      ],
      [
        "Ġb",
        "iÃ¨re"
      ],
      [
        "Ġth",
        "en"
      ],
      [
        "Ġsign",
        "if"
      ],
      [
        "Ġdi",
        "v"
      ],
      [
        "Ġd",
        "roit"
      ],
      [
        "Ġneed",
        "s"
      ],
      [
        "Ġl",
        "y"
      ],
      [
        "Ġre",
        "Ã§u"
      ],
      [
        "Ġhos",
        "pital"
      ],
      [
        "ĠÃ©",
        "le"
      ],
      [
        "hab",
        "itude"
      ],
      [
        "Ġbus",
        "iness"
      ],
      [
        "z",
        "z"
      ],
      [
        "ens",
        "ive"
      ],
      [
        "Ġcomp",
        "uter"
      ],
      [
        "Ġfu",
        "mer"
      ],
      [
        "Ġnum",
        "Ã©ro"
      ],
      [
        "c",
        "ess"
      ],
      [
        "Ġj",
        "apon"
      ],
      [
        "Ġsu",
        "it"
      ],
      [
        "Ġres",
        "se"
      ],
      [
        "Ġaut",
        "or"
      ],
      [
        "Ġsimp",
        "le"
      ],
      [
        "ĠtÃ©lÃ©",
        "vision"
      ],
      [
        "Ġke",
        "pt"
      ],
      [
        "un",
        "k"
      ],
      [
        "ĠO",
        "K"
      ],
      [
        "Ġbec",
        "ome"
      ],
      [
        "v",
        "iens"
      ],
      [
        "an",
        "nÃ©e"
      ],
      [
        "Ġappel",
        "Ã©"
      ],
      [
        "Ġfa",
        "Ã§on"
      ],
      [
        "Ġe",
        "le"
      ],
      [
        "t",
        "te"
      ],
      [
        "Ġt",
        "ree"
      ],
      [
        "Ġl",
        "ie"
      ],
      [
        "Ġw",
        "ine"
      ],
      [
        "p",
        "s"
      ],
      [
        "Ġper",
        "d"
      ],
      [
        "Ġla",
        "u"
      ],
      [
        "Ġsu",
        "i"
      ],
      [
        "Ã©t",
        "r"
      ],
      [
        "Ġhun",
        "gry"
      ],
      [
        "Ġvac",
        "ances"
      ],
      [
        "ĠPense",
        "z"
      ],
      [
        "ic",
        "ation"
      ],
      [
        "Ġaim",
        "Ã©"
      ],
      [
        "Ġstr",
        "ong"
      ],
      [
        "ir",
        "Ã©"
      ],
      [
        "pe",
        "cted"
      ],
      [
        "c",
        "Ã©"
      ],
      [
        "ow",
        "er"
      ],
      [
        "ĠÃ©",
        "l"
      ],
      [
        "n",
        "aire"
      ],
      [
        "Ġt",
        "rente"
      ],
      [
        "Ġimp",
        "ression"
      ],
      [
        "om",
        "et"
      ],
      [
        "Ġmont",
        "rer"
      ],
      [
        "ĠbÃ©",
        "bÃ©"
      ],
      [
        "l",
        "ent"
      ],
      [
        "Ġs",
        "ound"
      ],
      [
        "Ġtr",
        "ave"
      ],
      [
        "Ġta",
        "king"
      ],
      [
        "lf",
        "riend"
      ],
      [
        "iqu",
        "Ã©"
      ],
      [
        "Ġpl",
        "ain"
      ],
      [
        "Ġp",
        "oi"
      ]
    ]
  }
}